[PAD
[UNK]
[CLS]
[SEP]
[MASK]
!
$
%
&
'
(
)
*
+
,
-
.
/
0
1
2
3
4
5
6
7
8
9
:
;
<
=
>
?
@
[
\
]
a
b
c
d
e
f
g
h
i
j
k
l
m
n
o
p
q
r
s
t
u
v
w
x
y
z
{
|
}
~
°
±
µ
·
×
α
β
δ
μ
π
υ
–
—
‘
’
“
”
•
′
₅
₆
↔
−
∼
≈
≤
≥
##o
##d
##e
##l
##v
##m
##n
##t
##s
##b
##i
##g
##y
##r
##5
##a
##0
##p
##x
##6
##7
##h
##u
##f
##8
##c
##9
##1
##2
##k
##z
##4
##−
##w
##3
##j
##q
##°
##υ
##₆
##₅
##er
th
##on
##at
##es
the
##ct
##ro
##it
##le
##in
##en
##ed
an
##al
##ic
##ion
##or
of
in
##ly
##an
and
##ar
##ing
##lect
##ent
elect
##re
electro
##is
##ter
##as
##et
##ation
##ch
to
##um
##ith
##ol
##ve
##ig
##id
re
##ies
st
##lyt
##em
electrolyt
li
##ity
co
##ul
##st
con
##atter
##ce
##mp
for
batter
al
##ur
##ge
ion
##il
de
pro
##ab
##ium
po
##igh
with
##od
##ate
##us
is
##ical
##ow
##if
##el
##ut
electrolyte
ch
##pe
as
##ir
##act
##ial
##uct
##th
high
batteries
##im
##ive
sol
on
be
##ib
##ap
##ver
en
##os
lith
res
are
##per
ma
that
##op
lithium
##qu
at
##ure
##ts
ex
by
##ated
##iv
comp
##ac
##arge
##ere
spe
dis
##cl
##ance
met
electrolytes
##able
##iz
##emical
su
poly
tr
##gy
##ment
nm
wh
##un
##for
##ility
##ide
this
us
inter
nmr
##yl
##am
battery
##ater
##duct
we
electroch
per
##mer
##ode
##ad
##ess
##len
##ition
##rom
##ased
##ell
me
##ff
##ros
##ta
sh
ener
cy
str
##form
electrochemical
##pp
cap
ad
##est
##ens
dif
energy
##ort
sy
##ous
diff
##om
pr
##action
##ath
mg
imp
##tr
##ulf
##ud
based
##ant
##ution
was
##ations
electrod
##charge
##aterial
material
car
or
metal
##vel
conduct
solv
perform
mo
##ans
un
##ich
capac
se
##bon
##ew
spect
##lu
##ability
cath
trans
##ved
ionic
capacity
##der
cell
##ph
ha
##cent
cycl
##eth
##rosc
carbon
##vi
##ot
##ay
##roscop
from
were
eff
##ect
##and
which
##ivity
gr
form
have
app
low
##ign
##so
performance
polymer
##und
##ents
ac
##uc
##ific
stud
##00
add
##tent
##age
show
##roscopy
##tic
been
##si
##ence
##ase
##chan
##ite
##stem
system
devel
develop
##aly
spec
all
electrode
cathode
dens
reaction
##port
##gn
##cre
can
##ese
air
ox
##que
##tain
conductivity
materials
##umin
##ox
##co
sal
struct
spectroscopy
bet
these
##ther
##ine
magn
##bs
liqu
liquid
##perat
##ace
##ied
##ized
sulf
resul
##end
vol
char
stor
solution
has
##ible
tem
mechan
##vers
their
##etr
using
alumin
##etic
density
##osition
stability
storage
red
com
##str
##fsi
##ative
ph
##ore
discharge
des
##ici
pre
te
##centr
temperat
##ong
ne
##ges
under
##lic
inv
proper
##ile
electr
##af
concentr
##erm
##cess
meth
##ain
##chn
techn
propert
##cul
pres
anode
##aph
##queous
anion
deg
##face
##ue
##lene
carbonate
differ
##ities
how
##we
fo
##ates
analy
##ork
properties
incre
also
diffus
effect
##ylene
##fer
##ass
##ization
mechanis
ab
over
##erved
##ared
recharge
##ments
##pl
##pt
##anc
par
potent
impro
##ween
di
here
##ever
salt
between
graph
int
##estig
however
ev
rel
investig
prom
##pect
mechanism
rechargeable
##sis
##ane
potential
meas
##ucle
temperature
sur
##luo
aluminum
dem
solid
formation
##ci
bo
##ary
different
##urr
##enc
##lo
##ating
applic
nucle
it
##ear
##led
development
##cal
na
##gan
prov
##acter
used
results
character
##ca
##rou
sign
aqueous
##ising
##odes
##itive
##br
##olo
##ides
hy
work
##ree
##ures
##se
##uring
solvent
due
am
act
non
##gen
##cus
than
such
diffusion
ro
charge
pl
sulfur
its
##lex
ind
cycling
systems
eth
more
dep
##ally
curr
syn
transport
both
new
##ction
##ard
pos
##ibs
cells
##gh
revers
surface
cost
ions
sei
current
structure
electrodes
##ethyl
##ety
num
study
cm
saf
up
##ers
##ond
##onstr
##ights
cr
##ri
qu
process
##eld
promising
##ield
reson
##tage
prop
exper
mole
##sed
effici
##comp
underst
cor
tw
le
##o2
##ging
demonstr
design
synth
##−1
##ast
lif
during
fir
##istr
present
chal
graphite
first
##ined
magnetic
signific
numb
experim
therm
challen
contain
##ively
but
theor
resear
species
concentration
research
##me
##ari
##ganic
resonance
20
higher
im
zn
##emistr
nuclear
two
significant
##ene
cl
##ight
understand
addition
electron
no
rate
##hib
chemical
cycles
specific
ob
##ub
lit
##olution
use
analysis
synthes
##view
measure
mod
not
##ind
ins
recent
coul
voltage
##hibit
pe
molecul
af
sim
##sulf
##yn
##f6
##ach
##xt
##inc
##rees
solutions
large
obs
10
##ress
reve
##ynam
vari
comb
degrees
##les
##ically
cyc
mic
sit
zinc
##ting
technolo
dim
##ose
intercal
gel
##po
##clud
magnes
el
tim
##ak
##ps
##all
report
##lent
adv
cont
transfer
##ie
##ill
investigated
##ency
magnesium
ec
ty
safety
##low
##gies
decomp
##ener
##dro
fur
g−1
gener
##ination
stable
##emistry
measurements
cation
field
applications
lay
so
##ult
##osph
discus
##unction
method
into
containing
##ynamic
further
##mit
cons
##adi
organic
##rough
understanding
after
##ra
there
product
vi
review
one
number
sp
well
alcl
##ives
solvation
solvents
oxy
prep
enh
nan
mem
si
includ
conf
obtain
##2o
mah
##trib
appro
fut
sod
diss
interaction
observed
future
##ibility
exhibit
interph
reactions
ethylene
situ
decomposition
##out
chan
##luor
studied
reversible
membr
cal
rights
##osed
reserved
##ome
fe
##gg
##ues
lip
redox
ach
##endr
##luoro
sodium
achie
bis
dendr
mi
polysulf
most
oxygen
deter
found
##cial
##row
imped
indic
efficiency
life
challenges
limit
intercalation
##ention
##ilic
while
##etry
lipf6
go
##ors
compared
trif
##vier
hydro
##li
through
complex
##soci
acid
partic
improve
##sevier
theoret
elsevier
interphase
water
##ged
##use
##ize
determ
il
##ord
##mental
pract
increas
theoretical
tfsi
##ving
anodes
##ider
various
##ha
expl
cycle
layer
including
obtained
ray
##ost
methyl
dynamic
ful
function
other
##ataly
inf
state
##ified
env
main
active
dev
import
consider
##olar
##elf
##ame
##ffici
techni
quant
novel
practical
term
experiment
thermal
grow
id
##iron
respect
synthesized
prepared
##amm
reduct
time
discussed
environ
100
dm
##ound
exce
det
fluor
##onyl
strate
lead
litfsi
transference
devic
mult
ran
beha
when
long
sca
##ip
composition
molecular
enhanc
behavi
opt
##ail
chemistry
oxide
dire
impedance
free
self
##edi
##oxy
201
ar
man
##bic
##ert
##anes
##ist
##ack
cathodes
##luorom
ca
lin
oper
alter
supp
##mercial
gradi
reveal
##ep
##rad
##cc
##ke
##ish
rem
pow
commercial
via
good
es
##ured
herein
poss
trifluorom
our
val
compound
important
pa
##atic
##ular
only
##etric
calcul
reduction
ft
kin
##ational
prot
beca
##tract
additive
degrad
products
because
flex
##ms
##inated
coe
strong
mob
##uced
improved
positive
significantly
gre
he
mu
vis
pul
compon
technology
ident
kinetic
coeffici
ret
##yst
##ential
##ombic
order
shows
room
mon
##res
coord
decre
highly
super
studies
anions
increase
##ances
membrane
gradient
ir
lic
rat
##par
##ural
prob
salts
generation
approach
respectively
range
rati
19
200
cataly
pc
sc
##til
##rel
##ilar
iss
sub
mechanisms
confir
scale
degradation
grou
##spect
three
reg
requ
sugg
phase
provide
imide
similar
reported
altern
suggest
gly
sm
##itr
compar
structures
depend
model
coulombic
13
flow
ms
pv
silic
##az
growth
optim
emp
lib
compos
electric
presence
abund
cryst
dynamics
fin
##elect
##amp
##ful
##ward
attract
increasing
em
##fac
formed
power
tetr
##oy
##ning
##olved
##fore
sec
showed
concentrations
application
proposed
could
alcl3
interactions
experimental
devices
out
wide
##ds
##alent
init
oxid
evolution
peo
##tribut
particular
flexible
confirm
aibs
##rol
interface
demonstrated
typ
excel
ele
est
ether
find
##ole
##yr
##ric
##ites
##struct
relative
provides
dissolution
functional
excellent
cand
occ
pf
ver
##og
still
cond
lower
allow
focus
type
mixt
candid
equ
ser
##col
##rous
##ases
separ
volum
full
50
##ature
real
dec
solub
##ques
characterized
experiments
determined
second
ag
cent
fil
ram
##ey
##lish
##raction
alk
##ivities
##ays
alloy
next
correl
pulsed
mass
thus
##ters
const
cyclic
developed
about
deposition
micro
dimethyl
polysulfide
techniques
behavior
kinetics
raman
fac
##lor
##xim
react
ext
##ivation
sever
spectra
shown
##ption
processes
influ
finally
##cos
##one
##inder
##idaz
conv
may
suit
##ensive
transition
phosph
measured
nano
compounds
great
issues
bor
cations
lt
##mon
##its
##istic
ass
better
crit
demonstrate
viscos
condition
lo
some
van
zibs
##oun
##ma
##ement
interest
##ross
neg
##loy
composite
key
test
util
vs
##mn
##iation
##itives
##orph
prog
capability
mg2
additives
##brid
corros
strategies
vanad
fast
gl
line
mol
##aled
##cept
##ulfonyl
acet
##tention
aluminium
hybrid
role
insert
limited
employ
progress
25
##df
##sc
##ior
##ire
##up
##ugh
toward
attention
##tages
##ously
molecules
changes
##entional
trifluorometh
mobility
ratio
very
polar
##de
##ted
##ryl
##aqueous
##fs
##ored
poor
highl
exchan
dissoci
##izing
shif
charging
increased
nonaqueous
upon
revealed
##po4
considered
viscosity
do
wt
xps
##pro
##ual
##ust
offer
like
interfac
stri
four
amoun
therefore
dendrite
ftir
much
conventional
fund
pass
sem
##ron
##cu
##ck
##come
##wing
##ions
li2
##abs
##abil
associ
##ethylene
provid
spin
coefficients
scan
vanadium
funda
dat
hf
rich
ul
ve
will
##ob
##ves
##ax
exp
##phosph
liquids
##afluoro
##ains
graphene
##poly
##tribution
components
coordination
alternative
silicon
negative
corrosion
scanning
data
dme
side
wind
##now
##f3
##cr
those
##ice
co2
deli
acc
structural
resulting
advan
direct
calculations
identified
retention
small
confirmed
suitable
fundamental
der
##ern
then
##ify
temperatures
effective
characterization
presented
polysulfides
enhanced
path
sing
##ough
##por
##ise
without
perspect
conductivities
volt
analyz
intro
relax
theory
synthesis
simul
technologies
pair
proble
subst
groups
critical
glass
exchange
sum
samp
content
consis
##odic
chlor
##oss
densities
related
class
combination
environment
requir
##itrile
pvdf
##lished
summ
bond
cross
owing
##av
##xed
##hic
##alu
##reh
compreh
where
##pping
diffraction
##ected
evalu
##lo4
ethyl
recently
combined
microscopy
dmc
many
catalyst
initial
pfg
several
vehic
window
single
voltamm
bul
dop
host
know
op
o2
##ram
thf
##ark
##arly
##oph
among
level
influence
ltd
stripping
##polymer
deriv
bulk
15
br
fl
kg
xr
##ccess
they
##itative
##aper
exam
success
performed
##ether
##version
effects
characteristic
plating
efficient
##enef
methods
regard
alkal
conditions
insertion
relaxation
benef
cle
year
##oul
##f4
##ivalent
##ethoxy
##oto
appl
prev
investigate
##ology
reversibility
advanc
dendrites
##tributed
##ould
lat
mn
##more
##ag
##ah
##pot
##ces
##ick
##igo
stabil
##ute
highest
enable
spectroscop
result
electronic
furthermore
exhibits
terms
center
##idazol
ultr
##crib
years
applied
60
dot
min
##sion
##uce
##astic
libs
##ably
atom
mot
mechanical
photo
even
propylene
insights
alcl4
fec
leading
support
values
glycol
bar
blen
##our
##pond
##itic
stand
conversion
##iled
overpot
times
sour
achieved
indicate
quantitative
direction
possible
volume
secondary
film
##fsa
highlight
voltammetry
overpotential
30
dom
paper
##lin
##ling
##jor
##ests
copolymer
made
major
compat
prim
need
hydrogen
mainly
mixtures
solubility
dissociation
characteristics
11
av
##te
##ral
##ings
displ
electrochemistry
demand
corres
peg
control
membranes
achieve
operation
hex
superior
##electron
relatively
interfacial
##idazolium
correspond
17
pp
vin
##ier
##ient
##ailed
##onitrile
##ator
##round
##ins
##urs
def
##iven
sust
transform
##ained
part
numbers
clus
change
technique
detailed
crystall
trifluoromethanes
amount
analyzed
introd
vehicles
open
aff
dsc
fab
ii
loss
ol
##over
select
phen
parame
##ences
##lock
moreover
challenge
cycled
mixed
estim
pathw
chloride
summar
photoelectron
fabric
dr
each
fluoro
medi
morph
ure
##12
##rop
inc
##quent
interm
weight
uni
charged
reduced
describ
previ
effectively
ils
environmental
oxidation
candidates
provided
problems
successful
advanced
sustain
urea
fol
gas
pub
##ft
##inu
##char
al3
##izes
impact
performances
##oxide
common
concentrated
peak
contact
reveals
abundance
crystal
associated
xrd
31
abs
ef
emer
fact
fri
gu
gc
hal
light
mp
mat
##tf
##atives
rep
##emb
coup
within
area
comple
dischar
##cl2
##unter
shut
conducting
polymers
overcome
safe
simp
dissolved
increases
fluorinated
strategy
decrease
abundant
types
constant
unique
friend
bas
few
operat
sl
sn
tun
tests
##tfsi
##go
##ys
##ons
##eng
intr
along
porous
##ibr
maxim
prin
polymerization
##ification
address
electrical
improving
##2o5
lifepo4
caus
suppress
attracted
attractive
emim
series
linear
advantages
simulations
oligo
effor
shutt
cir
hel
nat
pan
ren
##ove
##mbs
##h4
##organic
inorganic
rele
step
contr
alth
##ately
resist
##ension
plate
continu
liclo4
corresponding
repres
although
12
aut
around
far
hinder
sci
yield
##o4
##ex
anodic
##alumin
##ilit
electrochemically
developing
sulfon
plastic
advances
enhance
fully
lini
trifluoromethyl
monit
facilit
passivation
##phosphate
primary
hexafluoro
trifluoromethanesulfonyl
operating
princi
500
80
best
col
dic
less
mabs
rap
rad
##ses
##com
inst
deep
attributed
##acryl
capacities
oxides
phys
above
close
leads
mono
estab
allows
candidate
borate
local
comprehensive
evaluated
lattic
standard
directions
follow
rapid
bre
cu
g4
lack
pure
sat
##eg
##bal
##fact
##inary
##arbon
reach
counter
prof
end
mac
##amide
##formation
##ensively
conduction
degree
potentials
activity
##rier
infr
component
assemb
deliver
published
##ength
radical
lattice
3d
35
70
99
aim
agg
binder
eis
lew
molar
ra
sin
size
them
##orpor
##idine
al2
poin
exis
dist
distribution
nmc
##omen
orr
metallic
evid
##pected
signal
##rix
thermod
approxim
indicated
ess
possess
coefficient
require
libob
particularly
findings
microstruct
alkaline
blend
phenomen
morphology
incorpor
matrix
efforts
break
lewis
ap
ce
mas
nature
rates
##mm
##con
##king
##ining
##ants
##reg
chemistr
##ially
##imetry
##ibly
suff
short
carr
diox
investigation
promot
nucleoph
working
prepar
achieving
group
comparis
dependent
utilization
polarization
shift
perspectives
substit
catalysts
parameters
intermedi
maximum
platea
infrared
chemistries
block
dil
dft
fail
g2
tg
##ogen
##ily
##pre
##hy
##fb
##orption
inhibit
##lyme
##arg
##olv
##olane
repl
##ulation
chlo
##imetric
subs
weak
##ade
should
press
orig
conductive
relations
differential
depos
config
fluoride
elements
mixture
employed
fourier
samples
known
derived
examined
simple
circu
represent
##aluminate
led
sig
slow
way
##oh
##oc
##equent
##ness
##iated
##aging
##ually
##f2
##inium
##inant
##old
##ilities
prospect
chain
ent
enab
composed
##ethane
grid
##ucial
##ainst
analyses
ability
activation
crucial
##uble
dimethoxy
dimension
soci
occurr
equil
against
shifts
prevent
spectroscopic
successfully
coupled
carried
nucleophilic
subsequent
sigma
bel
eas
eut
fram
gp
net
pf6
same
tak
yet
##ler
##ti
##cataly
##ked
##work
##atically
##oring
##ingly
electrocataly
##idinium
ste
stage
prod
pot
post
##ather
organ
##ectic
##ando
acryl
added
##cover
phases
invol
complexes
layered
maintain
detail
device
art
operando
remains
commercialization
value
tested
employing
required
clearly
compatibility
avail
clusters
affect
estimated
half
intrins
help
contrast
aggreg
since
appe
comparison
configur
circuit
society
eutectic
23
bu
mit
ni
pi
port
pyr
sens
vc
##yan
##pite
##cm
##3v
thick
##ises
##lyte
conc
contribut
cho
being
compr
##rometry
predi
##ework
despite
prefer
never
overview
##ples
amb
propose
consum
calor
particles
determine
explored
multip
focused
separator
volumetric
soluble
vinyl
natural
auth
trifluoromethylsulf
collect
essential
chloro
framework
network
mitig
bro
ben
et
mri
pb
pur
pore
rather
so2
tre
vers
##oo2
##mo
##ten
##pyr
ang
inh
##ised
contribution
del
##pecial
##imidazolium
resp
extr
trad
symm
mgcl2
spectrometry
near
diffusivity
##assium
overall
intens
ammon
cm−
designing
obser
nanop
remark
especial
strongly
licoo2
ratios
initi
##olecul
occurs
whereas
summarized
potassium
portable
multiple
tradition
ammonium
especially
16
18
aging
apro
binary
cer
eo
fav
name
rational
##dr
##van
##most
##by
##bust
##ping
##cid
##onic
##iting
anal
information
##reme
##reement
refer
lix
##ime
lithiation
expected
polyethylene
tri
##mers
##ticle
systematic
molecu
designed
simult
layers
discuss
hydrox
1000
remain
protect
extreme
towards
delivers
perspective
pairs
doping
sources
crystalline
pathways
sustainable
factors
failure
ambient
calorimetry
aprotic
namely
analog
molecule
simultane
29
40
90
bf4
bh4
fsi
lig
tern
v2o5
##ely
##bor
##raph
##pr
##uch
##ines
##ory
##lying
##ission
##ither
##gel
##ifunction
##eless
che
##verage
lithiated
examp
compet
disper
##ady
##ading
means
ads
##ewable
forming
showing
necess
able
potentially
robust
demonstrates
sites
##2o4
acidic
improvement
heter
agreement
alloys
boron
substant
sample
doped
flamm
minim
##liness
emerging
friendliness
principles
relationsh
dimethoxyethane
dimensional
equilibr
choice
##olecular
ternary
##ifunctional
1h
300
bi
ed
ear
larg
oh
past
radi
##valent
##yond
##cn
##ced
##erature
##eds
any
##art
##idth
conse
concept
almost
po4
pouch
##imide
beyond
comput
shell
carb
polymeric
acco
##uces
developments
beta
sulfide
diethyl
integ
promise
##luoros
contains
litfsa
literature
combining
intercalated
multi
multivalent
compositions
article
importantly
calculated
proton
catalytic
alternatives
suggested
dependence
libf4
##rolidinium
typical
directly
source
previously
complete
discharged
caused
shuttle
renewable
hexafluorophosphate
##acrylate
existing
thermodynamic
approximate
suffer
available
intrinsic
trifluoromethylsulfonyl
chloroaluminate
broad
extremely
accoun
integr
brom
cs
dual
fre
gpe
hand
last
now
opp
vary
##o3
##mds
##ner
##tal
##ages
##upl
##inone
##orm
##arch
##asing
##ched
rec
construct
##ilox
##theless
become
eng
resour
trend
energies
##000
##ticles
##ended
prec
dielect
reli
##encies
reversibly
thermog
additionally
cationic
reviewed
indicates
indicating
##ostatic
##fficient
quantify
growing
behaviour
superoxide
modeling
emc
elev
films
correlation
li2s
display
fabricated
relev
established
followed
point
distin
pressure
origin
nevertheless
nanopar
traditional
dielectric
thermogra
14
back
fr
gal
hard
hmds
md
mes
tf
would
##o12
##nal
##cap
##ators
##ited
states
##ulated
##celer
al−
chrom
aspect
exist
##ivid
meet
conducted
units
acceler
systematically
electrodep
##co3
voltages
neut
technical
investigations
##enced
##ledge
depth
chemically
exhibited
feas
explain
considerable
experimentally
mangan
must
widely
oxidative
reactivity
greatly
acetate
double
li2co3
advantage
consisting
requires
crosslin
knowledge
supported
resistance
lini0
##arbonate
assembled
microstructure
substitution
tga
configuration
predict
versus
inher
simultaneously
##raphy
necessary
equilibrium
earth
computational
##luorosulfonyl
##upling
thermograv
galvan
000
average
cv
case
date
dra
either
fas
fraction
fluorosulfonyl
given
h2o
if
ic
py
tfsa
##ov
##ood
##ocol
##ven
##nel
##5o12
##aw
##he
##fe
##10
##wh
##ering
##atog
##ital
##oration
##orable
##isfact
total
li4
lifsi
##active
##imethyl
before
resolved
discover
strength
##ortun
##ometry
cyclability
##oty
lowest
##igned
##co0
undergo
presents
surfac
induced
imidazolium
general
generated
viable
dissol
explore
ide
detected
protocol
identify
decreased
probe
approaches
issue
optimal
optimization
correlations
facile
##idazole
does
offers
providing
comprehensively
kg−1
regarded
alkali
barrier
introduced
previous
guid
physical
occurring
##ti5o12
relationship
larger
opportun
##iloxane
engine
elevated
distinct
nanoparticles
chromatog
##isfactory
surfaces
chromatography
05
21
cd
cp
cf3
dol
fu
hom
med
mel
##ok
##di
##mission
##ious
##gether
##red
##agn
##pri
##22
##ered
thin
##onate
##inter
##enyl
##ores
##isation
##cho
together
reas
cos
##stac
##iform
make
mean
adop
##tri
solvating
cathodic
having
##roscopic
adding
speciation
##verse
reduce
differences
analyt
deme
amorph
play
quas
propyl
##compos
imaging
obstac
affor
methylimidazolium
importance
enhancement
powder
prototy
suggesting
glyme
optimized
##mn0
##ceptor
amounts
accum
accur
accord
regarding
benefits
mno2
atoms
alcl4−
highlighted
compatible
iii
pathway
described
##onsible
scient
facilitate
macro
phenomena
plateaus
##ogene
replac
appear
concern
responsible
extraction
cm−2
reference
ligand
example
relevant
al−s
aspects
inherent
li4ti5o12
fuel
##priate
##intercal
amorphous
27
85
ah
elu
echo
five
mibs
nibs
pg
ring
rot
rabs
sibs
tm
##ead
##ext
##mr
##gic
##gical
##gges
##cf3
##30
##icial
often
##ented
##revers
electroph
##asitic
##iles
##own
##quency
sugges
trig
shar
##ometric
mgs
metals
transmission
carbonates
appar
access
##ucing
desir
desolv
preci
property
anionic
parasitic
##uclear
##se2
individ
##riers
understood
demonstrating
butyl
zn2
modified
modification
variety
context
thereby
spes
##2o3
appropriate
limitations
detect
fluorine
2015
linked
mobilities
decreases
irrevers
##electro
typically
elemental
correlated
constit
phosphate
##mn1
##prop
likely
interfaces
consistent
beneficial
spectroscopies
motion
ppm
commonly
discharging
basis
continuous
hindered
evidence
requirements
promote
dilute
prospects
enables
electrocatalyst
buil
consumption
symmetric
varying
electrodeposition
neutral
manganese
galvanostatic
faster
analytical
scientific
elucid
suggests
24
37
95
bm
fc
fib
ga
hop
hence
mig
mark
nc
nick
ted
##dme
##ba
##pit
##has
##ug
##20
##onom
##itud
##let
##edom
##icult
##orus
inn
##lyl
##lysis
##ationary
##oles
repor
static
stationary
electrolytic
coin
coupling
##stand
deintercal
##ifies
##quinone
##clus
##izations
trimethyl
difficult
solvated
uns
uniform
transl
grav
forms
formul
##portion
sulfonyl
mechanically
graphitic
nucleation
amide
syner
currently
efficiencies
synthetic
lifet
additional
dimer
econom
view
quantum
dmso
flexibility
coordin
coordinated
decreasing
depends
silica
emphas
composites
tetrafluoro
tetrag
tetrah
realizing
decay
constants
nanostruct
nanocompos
lto
##mn2o4
acetonitrile
trifluoromethane
highlights
hfp
derivatives
electronics
displays
defect
cluster
media
##ropy
absence
science
plasticiz
monitored
physic
al2cl
incorporation
intermediate
##hydr
belie
gpes
aggregation
##3v2
contribute
author
etc
account
engineering
medium
quasi
afford
##ogeneous
migr
nickel
teda
reports
gravimetric
2d
55
75
bes
cast
d2o
ever
early
fi
had
latter
lab
length
oer
ti
titr
uv
vo
vert
##oo
##och
##oich
##olyte
##mc
##ns
##to
##ycl
##pts
##uter
##ustr
##erate
though
##esis
##lement
##oretic
##etal
ref
repe
receptor
cover
coating
cobal
##ulose
conj
conclud
alph
##utes
##ivated
trap
interact
##amic
##amine
##duction
prist
predom
grad
##oxyl
sulfone
methoxy
relation
na3v2
characterize
characterizations
numer
researchers
inside
combine
##porous
methodology
space
exploration
enhancing
arr
ca2
cause
mobile
greater
comparing
pva
tetra
allowing
reactive
extended
li2o2
problem
glasses
enabled
ultra
overpotentials
dominated
dominant
demands
controlled
fluoroethylene
absorption
friendly
tuning
yields
plasticized
dicyan
dicarbonate
instability
satur
signals
phenomenon
cei
dioxolane
preparation
intermediates
entropy
easily
involving
benz
so2cf3
treat
remarkable
initio
ceramic
favorable
##borate
frequency
backbon
existence
draw
reason
electrophoretic
apparent
desolvation
precipit
##itude
##oichi
cobalt
pristine
predominant
2o2
400
bifunctional
cre
dg
dess
divalent
epr
fer
fading
glo
hol
nap
naf
nitr
pm
pam
sw
scal
tur
tend
##ope
##iod
##ydro
##pi
##cri
##44
##onium
##ato
##atus
##atures
##cture
##ening
anch
anth
##anched
##chlor
tool
##oline
covalent
proce
chains
exc
extract
##iving
##ivate
distributed
sufficient
trace
internal
mgtfsi
solvate
performing
moist
##lustr
##phenyl
across
##co1
##endent
mechanistic
measuring
bound
industr
##ressive
microscopic
elim
ecs
nanos
include
trifluoro
improvements
determination
illustr
quantified
environments
enhances
behaviors
2010
2017
##ependent
valid
calculation
pulse
smoo
occur
serious
realize
interesting
association
bonding
150
##ahigh
ultraf
ultrahigh
atomic
supporting
copolymers
vinylene
partially
introduce
fabrication
describe
peaks
complement
basic
addressed
shuttling
##coming
establish
satisfactory
profiles
evidenced
possesses
plateau
deposits
picture
thickness
comprising
angle
delith
adsorption
hetero
resources
reliable
thermogravimetric
##while
ideal
meanwhile
individual
electrocatalysts
deintercalation
translational
lifetime
tetrahydro
titration
vertical
##ochemical
treatment
backbone
smooth
2e
43
98
91
bl
base
bri
bind
dc
dur
down
fam
gn
gap
gamm
gained
ln
lid
mc
pt
tit
vel
vital
##of
##other
##ef
##lim
##lay
##long
##mg
##mes
##not
##tle
##rfb
##ued
##fbs
##ks
##kes
##3s
##ject
thi
##ones
##lel
##levi
##inity
antic
##allel
inex
##ets
limn2o4
cose2
##ulate
##ste
conce
forward
allevi
iono
isol
##ifically
##through
ons
macc
makes
dispro
polyelectro
tris
mecn
##rosso
capable
price
implement
moi
unst
unpre
spectr
cellulose
##ethers
graf
accept
specifically
cannot
sulfides
reduces
##lications
involved
difference
diffusivities
param
parallel
improves
event
plat
plot
independent
position
least
imm
measurement
moderate
insight
##ynamically
##raquinone
production
spat
alcl2
##2o7
hydrolysis
operate
revealing
stronger
retard
ordered
iron
compare
comparable
outstand
finding
separation
separated
decade
extensive
utilized
inserted
##po4f
smaller
introduction
classical
summary
clear
motions
needed
defined
##iveness
selective
driven
##quently
sustainability
causes
monitor
princip
instead
aims
raw
breakthrough
##hydro
ledc
below
easy
produced
sensitive
##pyrrolidinium
intensity
observ
cheap
substantial
flammability
##cedented
opportunities
cosolv
obstacles
desirable
hopping
innov
tetraglyme
##hydride
besides
repeated
delithiation
brief
gamma
lidf
titan
veloc
inexp
##rossover
unprecedented
outstanding
45
600
73
aged
ctfsi
crossover
dca
ein
hist
kind
koh
mm
mer
nh4
patter
piv
pores
rgo
sus
slu
swe
ter
tail
vac
vrfb
width
°c
##dma
##doles
##lies
##less
##tem
##tim
##pes
##622
##uents
##ufact
##fl
##fur
##can
##esp
##inuclear
##inones
##aling
incomp
##anol
##arable
##ready
##ching
##idene
rece
star
stoichi
status
li3v
##ulph
already
prolong
assis
enco
enmr
##oprop
##ereal
trac
interlay
impur
impressive
care
carriers
unex
spectral
carbonyl
accomp
oxal
sulfolane
descri
teg
effectiveness
nuclei
##cale
route
ethereal
transportation
qual
lifesp
thermally
challenging
##arily
little
variation
technological
advance
##adily
six
sio2
confined
exhibiting
channel
feature
##ggish
mix
limits
limiting
gover
particle
explained
considering
dmf
exceed
exception
multinuclear
manufact
gradients
substr
glymes
smart
comparative
optimum
realized
severely
assess
critically
expand
simulation
pairing
environmentally
levels
stabilities
blends
pegme
partial
parameter
emerged
pani
render
release
continuum
monomer
rapidly
nmc622
replace
representative
enabling
subsequently
maintaining
preferential
authors
collectors
mitigate
purity
observe
competitive
dispers
flammable
consequ
bromide
##capac
feasible
##agnetic
accumulation
pgse
rotational
trigg
irreversible
nanostructured
nanocomposite
physicochemical
al2cl7
believe
migration
casting
fixed
predominantly
global
moisture
ultrafast
tetrahydrofur
2eo
lnmo
##stein
concepts
disproportion
unstable
spectrum
inexpensive
einstein
sluggish
sweep
li3vo4
tetrahydrofuran
26
33
67
7li
97
bf
cut
cases
clo4
dh
don
dig
dod
er
fade
gain
gases
hold
just
lmbs
mx
mim
mcm
nit
nar
nas
nac
nern
ntf
oct
rigo
rmbs
ss
set
tin
tmp
vibr
∼1
##oid
##orous
##nected
##s2
##s3
##sil
##gent
##alen
##pn
##80
##zed
##qds
##atile
##roc
##itors
##enes
##ened
##orb
inactive
##aringly
electrost
##olve
##ido
readily
stack
##ems
coated
##ulsion
##attering
##peg
onto
restri
magic
atm
atr
extent
excess
##acet
track
whole
interpre
wearable
period
##elling
mgo
implications
##ulfonic
carrier
mof
mofs
##ansion
ionicity
##otub
formulation
applying
magnitude
##etrical
comm
underlying
##ancy
boost
applicability
##ologies
hyper
place
plag
currents
newly
imidazole
clar
useful
largely
variable
sparingly
nanotub
##luorinated
dendritic
hydrogel
explo
quantification
reductive
multifunctional
2016
2013
lino3
commercially
esf
ester
2009
scattering
models
equivalent
alkyl
facing
phosphite
assigned
loading
utilizing
acetamide
dissociated
##abilities
spinel
spinning
ultim
expansion
analyze
consists
chlorine
evaluate
hosts
flame
examine
benefiting
prevents
latest
stabilize
stabilizing
highlighting
achievements
introducing
selected
##ropic
couple
oligomers
120
sulfonimide
reached
macrom
350
al2s3
exists
thermodynamically
approximately
prepare
deposited
take
acrylonitrile
aggregates
pyrrolidinium
contributions
certain
hydroxyl
protection
consequently
csf
precurs
icp
discovery
protocols
cf3so
prototype
accurate
macroporous
appears
concerns
elucidate
unsat
defects
plasticizer
tio2
conjug
alpha
trapping
numerous
exciting
illustrated
binding
durability
paramagnetic
suscept
prolonged
##opropyl
impurities
careful
accompan
tegdme
mixing
mcmb
nernst
ntf2
rigorous
electrostatic
plagued
01
1o2
28
34
87
83
96
aib
bot
cur
cate
cub
dn
dram
flu
fill
give
har
ls
lh
lco
l−1
labs
mv
mis
mode
might
moss
nitrile
om
p2
pst
pil
ris
run
rhe
rfbs
sizes
siloxane
tp
ttf
vul
##orough
##dmbs
##mb
##methyl
##ne
##n1
##tlene
##sa
##bl
##gor
##ruct
##radi
##au
##air
##aged
##pb
##polar
##x10
##fc
##fluoro
##cle
##3o
##just
thorough
##inal
##alk
##ionic
##oric
inverse
##eties
##etically
##cher
##oluble
##igu
stim
##strom
conclus
alf3
aligned
al2o3
##urally
ionization
devi
choline
##uctu
##iment
##imidazole
##oses
resolution
making
attain
##ived
comprom
compens
complic
disor
metric
polyacryl
intercon
##amethyl
perchlor
she
shed
cyan
capt
capabilities
adjust
##estruct
difluoro
orient
solvates
move
unra
until
search
##ewidth
catholyte
carbons
##otal
##so4
acqu
neat
methacrylate
##ancies
diethylene
dihydro
boro
##look
hydr
plays
quinones
firstly
image
##ightly
electrons
insoluble
micros
microsc
gels
fields
soft
discussion
span
interphases
changed
##luoride
dendrim
##like
exploring
methylpyrrolidinium
considerably
fluorination
ranging
2012
##acks
linewidth
operational
heat
retained
irradi
2008
##tils
confirms
region
final
outlook
allowed
focuses
equation
serve
separators
alloying
correlate
reacts
phosphorus
assum
exposed
bonds
windows
##ophosph
branched
primarily
aven
transformation
losses
selection
estimate
mediators
intermolecular
mpc
oligoether
resistive
following
profound
raibs
points
microstructures
suffers
weaker
entire
electrocatalytic
steady
produce
organos
acrylate
involves
maintains
details
affects
preferred
vinylidene
collector
angstrom
symmetrical
remarkably
160
substantially
edge
completely
trends
frtils
tfo
feasibility
crosslinking
homogeneous
melting
adopted
according
build
bmi
synerg
tetrafluoroborate
affordable
reflect
covering
gradually
saturated
dgm
ferroc
napf6
nafion
nitrate
scalable
anthraquinone
proceeds
elimin
nanoscale
family
onset
polyelectrolyte
moieties
spatial
retardant
principle
breakthroughs
innovative
titanium
kinds
merits
pivotal
interlayer
lifespan
dhdmbs
diglyme
nitro
vibrational
restrict
commun
susceptibility
bottlene
cubic
pstfsi
ttfpi
metrics
interconnected
perchlorate
bottleneck
00
38
66
78
72
84
92
alet
bmp
bend
cn
cf
ded
did
dge
dos
dha
ea
face
gic
get
gall
hr
h2
ml
mil
mma
pent
pack
rar
ration
sr
scre
sized
tens
tip
tert
tte
ur
var
wor
wet
wides
wall
ways
zib
##oly
##oate
##dw
##day
##line
##vol
##volution
##v2o5
##nary
##bi
##ben
##backs
##aic
##ped
##pper
##hcl
##uish
##ufficient
##cer
##11
##13
##jected
##ont
##onse
##ester
##rods
##itect
##ino
##int
##inent
##inyl
another
anhydride
##alt
##als
##anidine
electroactive
today
##idity
stages
##ements
li2o
copper
##ulating
ali
##iling
dead
prove
proved
protic
poros
##ussi
##uted
ascrib
##ired
ones
ongo
##ibilities
ens
##osure
areal
attem
disulfonic
##cl3
polyan
##amidine
##aternary
##adaic
##romatic
shor
energ
##ense
##ulfon
orb
conductor
conductors
mo6
und
unit
seg
sequ
##lue
##oted
##otropic
grain
structured
nearly
foil
evolved
na2
nafsi
characterised
actual
nond
road
costs
cmc
safer
##onstruct
crust
quaternary
resonances
experi
twice
leak
202
images
modul
insufficient
##tinguish
soak
viability
changing
features
mostly
##ilicon
throughout
complexation
quantities
##ammonium
longer
option
2018
2011
2014
arch
arising
remo
green
supercon
supercapac
licl
2000
optimize
oxidized
occup
focusing
central
extensively
influences
nanorods
acetamidine
polarisation
doub
semi
hfip
expensive
exposure
##cryst
fundamentals
vehicle
##ophene
fluctu
clean
stabilization
minor
needs
avoid
controlling
ppy
defici
affected
summarize
summarizes
mediated
impacts
factor
guide
guanidine
mpa
mpyr
helps
autom
faradaic
lini1
5000
monovalent
cu2
##balance
profile
binders
requirement
breaking
ceo2
blocking
##pread
inhibiting
steps
organophosph
bench
delta
response
cm−3
remaining
analogues
carboxyl
thermodynamics
integrated
bromine
record
reconstruct
constructed
resource
tfap
##caps
accelerate
accelerated
crosslinked
guidance
prototypes
ligands
sharp
built
240
coatings
concluded
interacting
drawbacks
precipitation
pamam
turn
extracted
industrial
black
isolated
eventually
cosolvents
lidfob
patterns
stoichiometric
assisted
unexpected
exceptionally
manufacturing
al2cl7−
disproportionation
narrow
##silane
atmosph
hydrogels
accompanied
omts
tpah
vulcan
complicated
disorder
polyacrylonitrile
cyanide
dihydrox
microscope
nitrogen
dhaq
tip2o7
urgent
worl
widespread
##benz
porosity
##ussian
ascribed
ongoing
leakage
superconcentr
1d
1c
2p
22
36
32
3o2
3co1
49
51
65
61
74
8co0
au
aqds
aromatic
blue
c2
core
da
detr
ee
ep
esi
ease
fit
fid
fos
fulf
fire
gbl
hp
hier
ice
jum
ko2
lp
lign
mch
modes
outer
pen
purs
p2o5
rol
rand
s8
sap
sba
tis
tamm
tf2
vop
vdf
wises
xse
xfc
zi
zw
##off
##eed
##even
##ll
##morph
##nsc
##tability
##sh
##s8
##ster
##i0
##iary
##yrol
##rup
##ave
##hen
##hol
##uent
##uable
##fy
##cibility
##1n1
##41
##3n
##qs
##onal
##ror
##itter
##inement
##enari
##edral
##icyl
##orrel
ine
##ision
top
##olan
##ids
stain
liod
coo
allyl
dee
deco
deuter
##abor
##actone
##thor
##imes
reser
resid
resolve
exter
disiloxane
metath
polyc
polyphosph
polypyr
uses
interpl
##aml
##amido
perf
##adrup
##take
strip
adap
##ensation
prior
mgcl
unity
unus
unlike
seen
seis
section
seaw
##phere
##viole
##silyl
dense
salicyl
sulfate
resulted
volatile
alumina
prelim
electrically
##aining
foam
diame
prominent
surve
hyd
hyster
plated
indeed
ethoxy
deplet
synch
##ctions
uptake
quite
quadrup
designs
##astically
significance
butyrol
obey
notice
insp
degreesc
gelled
##akes
decomposed
generally
deterior
impeding
limitation
trifl
acids
particip
determining
fulcher
functions
devoted
considerations
dmac
fluores
fluorides
ranges
scaff
scaven
options
2019
arises
linking
commercialized
possibility
possibly
possibilities
valuable
paa
pah
paes
pave
protected
pulver
2002
2003
catalyzed
scm
scenari
depending
pvc
##azole
powerful
tetramethyl
element
ethers
equal
separately
realistic
centers
phosphates
phosphonate
load
interestingly
testing
molten
classes
requiring
bonded
evaluation
opens
examines
standing
quantitatively
domain
displac
##atory
selectively
drastically
fluorophosph
morphologies
halogen
slightly
tuned
intrigu
suppressed
suppressing
contrary
continuously
represents
hindering
monitoring
facilitated
facilitating
closely
monomers
endow
libob0
incorporating
dioxolan
dils
slower
occurred
taken
steel
affecting
appealing
configurations
sensors
contributes
frameworks
pbp
pbqs
purp
treated
extra
intensities
lixv2o5
triethyl
hydroxy
protective
analogs
adsorb
minimal
radiation
radius
precise
reliability
original
mesop
predicted
thermogravimetry
pyro
pydma
##away
dissolve
guidel
opportunity
thinner
played
accordingly
replaced
replacing
tmsi
share
constituents
##propyl
bmim
fc1n1
market
formula
economic
economical
coordinating
every
vogel
ultraviole
dicyano
holds
pmma
pmaml
##4441
trifluoroethyl
complementary
anticip
acceptable
platform
plotted
briefly
velocity
received
starting
description
channels
govern
expanded
preferentially
dispersive
donor
error
mxene
nasic
naclo4
##alence
interpret
clarified
nanotube
exploit
ultimately
macromolecular
precursor
cf3so2
carefully
curves
categor
lhces
miscibility
runaway
##imental
##estructive
unravel
dendrimers
irradiation
organosilicon
ferrocene
cnt
dosy
##itecture
mo6s8
architecture
##crystall
organophosphorus
detrimental
hierarch
lignin
random
tamman
tf2n
vopo4
zwitter
##nscs
stainless
liodfb
metathesis
seawater
hysteresis
depletion
butyrolactone
fc1n112
ultraviolet
06
3mn1
46
48
42
56
57
52
6h
68
62
71
700
86
82
94
aa
ax
aid
bp
bc
bal
dx
dli
eq
eds
f2
gm
g1
gase
hn
hes
hum
hope
iv
ig
ipn
lam
lmc
ldoles
map
nca
plo
pdoles
p3o
rise
sa
sch
som
sulph
tb
targ
tdi
tau
v2
vir
vtf
wo3
yl
##obic
##ek
##lig
##vrel
##vpo4f
##vinyl
##mas
##mark
##tion
##tun
##tfsa
##sn
##bz
##block
##ius
##ips
##iously
##gly
##gli
##yle
##ymm
##ale
##put
##pram
##pmc
##xtr
##xmn
##hombic
##field
##cence
##91
##14
##kg
##ker
##ken
##know
##zn
##46
##3co
thbz
##onuclear
##atom
##role
##rotr
##itor
##itivity
##inum
##inonitrile
infer
inner
##ang
##are
##reci
##isopropyl
recom
recover
stob
stok
##lytes
li10
conver
constr
##cell
alb
alco
##urity
deal
deins
##user
##ifs
##uth
##utar
ch2
chos
asbs
##iration
solve
solute
online
becoming
##ibri
areas
##opoly
##ivating
succ
supram
polyind
polyether
polyethers
polyester
polymorph
polyvinyl
whether
usually
intermit
permit
##odextr
##ades
shield
strain
##ensitive
prone
prussian
implies
##traction
orthor
mo2
unf
uneven
##phatic
##phobic
cyclodextr
##ethacrylate
##otive
##ands
appreci
##sio4
special
##oxides
storing
tempor
diffuses
diffused
overcoming
rechargeability
##plate
##ptes
parts
parad
diol
intensively
evs
investigating
surround
surpr
##encing
##log
proven
characterisation
signatures
##isingly
##ological
works
activated
nonfl
thanks
round
sulfurized
itself
indium
induces
cm−1
upy
quest
quick
quart
quinone
contained
litdi
synthesize
##point
contents
decomposes
generate
reviews
spont
nanod
nanow
achieves
impede
hydrophobic
acidity
others
respective
##ammable
dma
except
multim
##ipment
supply
remained
visible
visual
monom
monot
##resh
##part
probed
2006
2007
subject
subjected
regime
glycer
silicide
##azene
optimizing
electricity
attracting
output
pf5
verified
equipment
serves
50eg
reality
realization
decon
decades
correlates
microbalance
reacting
extend
severe
suitability
phosphonium
viscosities
lob
neglig
utilizes
##mnsio4
corrosive
vanadyl
glutar
acetylene
250
polarons
exchanged
offering
passive
passivate
vec
##phosphoric
paired
consist
bulky
stabilized
mini
motivated
motifs
barriers
domin
##teg
pegdme
ppn
crystallinity
opening
affinity
mediator
describes
fold
##tfe
tunnel
addressing
oligomer
effort
resistant
hinders
sulfonate
sulfonated
hexafluoroisopropyl
##comes
satis
reaches
assembly
delivered
radicals
al2000
incorporated
promotes
promoting
preparing
pressing
deposit
##ocyan
equilibri
gpi
takes
taking
availability
intrinsically
bua
sensitivity
comprises
comprised
predictions
mitigating
inhom
intense
initiate
rationalize
##cidol
lixsi
hydroxide
chevrel
examples
competing
heteronuclear
minimize
integration
constructing
quantifying
displayed
##fepo4f
dissolving
melt
obstacle
accurately
rotating
triglyme
mgsx
detection
##propylene
marked
formulations
coordinate
emphasis
plasticizers
conclude
methoxyethoxy
arrhen
tetraethylene
dicyanamide
reasonably
pamgli
tools
mgtfsi2
##3s4
thiophene
anticorrel
alleviate
ionomer
ionogel
implementation
grafted
platinum
independently
immob
observation
observations
velocities
histidine
mmor
vacancies
incompat
encour
encounter
oxalato
quality
exceeding
substrate
substrates
consequence
consequences
cutoff
dodsi
##acetamide
boosting
esfm
unsatisfactory
conjugated
lsv
risk
conclusion
compensate
capture
hydrated
microsphere
synergistic
gallium
rarely
screening
tensile
varied
aliphatic
##ulfonimide
orbital
na2fepo4f
modulus
soaked
removed
supercapacitors
benchmark
recorded
superconcentrated
epoxy
jump
lp30
deeper
external
interplay
preliminary
survey
hydros
synchrotr
quadrupolar
inspiration
fluorescence
pahs
pulverization
fluorophosphates
purpose
guidelines
nasicon
##crystalline
dxl
eqcm
gmf
gaseous
igs
plots
p3o9
tbpb
virt
##tunately
recomm
stoba
stokes
deinsert
chosen
succinonitrile
supramolecular
polyindole
intermittent
orthorhombic
surprisingly
quartz
spontane
glycerol
negligible
equilibria
arrhenius
pamgliac
anticorrelations
synchrotron
08
03
1s
1co0
2mn1
4v
58
64
76
8000
8mn0
amp
aptes
apart
bb
bh
bir
bip
bsc
bcm
bdw
btfe
cds
dich
dynam
days
done
eel
eta
fm
fes
fum
ge
g3
gar
giving
hu
hk
hem
iod
kb
ll
lg
lf
later
lot
lfs
lag
law
mw
mos
math
mfe
mpeg
nf
nib
o6
pd
put
pth
pap
pse
rig
rod
rtil
rings
sd
sil
spp
site
sf6
tpp
vap
vo2
v2o3
valence
wal
wider
ws2
xanes
zb
##omer
##oaluminate
##down
##ea
##lined
##vit
##vas
##mal
##mic
##mod
##muth
##nect
##ni0
##side
##sulph
##bre
##bold
##bead
##bba
##iostatic
##gd
##gens
##ying
##50
##ape
##aud
##ause
##pass
##po2
##pular
##70
##uit
##upt
##fold
##cum
##carbon
##99
##1co1
##zard
##zo2
##40
##−0
##32
##atical
##atility
##itance
##lete
##ints
##inations
##inite
##inities
##inish
##eded
anis
anolyte
##alo2
##ication
##oratory
off
instr
inversion
inclus
##ationic
tof
toler
##oling
##olving
rely
reag
styr
stably
start
starch
##ematical
li1
li3
lialo2
copoly
coverage
cooling
##ules
connect
force
allu
##urd
##ury
##ilay
dees
depl
delo
proced
proportion
proof
poms
pof2
popular
##ush
isot
isocyan
##ift
##eline
##utyl
chit
chron
asymm
##the
solar
once
beh
bear
beam
becomes
##iblock
enl
enth
enough
encaps
##osensitive
restr
resemb
mao
maf
attraction
expect
compact
complim
compelling
##acetal
speek
disk
disad
discre
distinguish
##izable
polycrystalline
polysulph
polyacetal
true
trip
triblock
whose
usable
usage
interests
##ama
##amed
percent
percol
shap
shelf
sheds
adh
##ortem
##omb
##ometal
mgx
mgmnsio4
##ulfonate
moo4
unw
unknow
capacitors
seven
seems
##pher
##phase
hamp
hazard
##ethanol
carbonace
##viated
##andw
grade
##ignment
##so3
##ificial
##ifications
##cogen
structurally
volts
charges
store
template
aluminate
redistr
reducing
coming
tep
neither
properly
increment
abuse
abbre
##plored
potentiostatic
dict
diacrylate
diagn
dipolar
dioate
events
evolving
relate
solids
applicable
characterizing
##branched
hypo
amine
acts
acting
nont
rock
plane
sulfuric
induce
propulsion
corro
corre
demonstration
thermosensitive
challenged
theories
##mex
2020
imidazol
cltfsi
obvi
object
modify
modifies
##indr
##hibited
combines
combinations
elong
elastic
elabor
decompose
sough
oxygens
siox
confinement
called
calibr
fef3
bismuth
foundation
impeded
goals
hydrolyt
hydrochlor
hydrofluoro
complexed
practically
explos
##ostic
infancy
termed
terminated
terminal
timely
dmmp
compositional
##oxymethyl
manner
cav
operated
alters
remov
esr
paid
protons
positively
heating
identity
identification
retains
orders
licf3
##parts
approaching
2005
2004
regulate
regulating
130
increasingly
outlined
confirming
functionality
functionalized
pfsa
verify
##ogram
condensation
seriously
separate
century
##lishing
microf
microporous
microbead
reactant
influenced
influencing
loc
utilize
25eg
poorly
striking
associations
hfes
express
negatively
smallest
relaxometry
glassy
classic
classified
##avorable
xrf
efficiently
benefit
##ethoxysilane
prevalent
advancement
##ager
##ahex
ultras
motivate
barely
domains
majority
110
ppab
crystallization
phenyl
driving
fluoroalk
describing
crystallog
simply
baseline
sns2
tune
suppresses
circum
natfsi
naturally
yielded
yielding
sulfones
linixmn
facilitates
hexafluoropropylene
dicationic
instance
cu1co1
reaching
counterparts
macroscopic
distance
blended
breakdown
##cont
dioxahex
##ilyl
inhibits
inhibited
weakly
originated
origins
representing
##ohal
##ocarbon
##nessite
grids
preventing
gpc
organohal
involve
helpful
##yanth
et3n
traditionally
167
analogous
simultaneous
298
liga
##boronic
cheaper
dispersed
dispersion
minimum
relationships
biopoly
edx
radii
carboxymethyl
protonated
broadening
accounted
integrity
gpe3
recycl
construction
fract
mesocarbon
explaining
advantageous
cvs
strengths
undergoes
dissolves
identifying
meaning
accumulated
replacement
ahbold
pgs
accessibility
desired
elucidated
370
fiber
trimethylsilyl
difficulty
difficulties
uniformly
dimerization
emphasizes
nanocomposites
believed
laboratory
lengths
##yclic
conjunction
graded
numerical
array
benzo
reasonable
creating
anchored
anchoring
proceeded
extracts
sufficiently
validated
heterostruct
ptma
alleviating
isolation
implemented
graft
cosolvent
lidfp
tailored
incomplete
receiving
traces
traced
oxalate
descript
qualitative
comparatively
rendering
triggered
mimet
octyl
##pegmex
tracking
hyperbranched
esfms
dramatic
dramatically
fluidity
##clear
thoroughly
stimulated
deviation
attained
sheath
adjustment
oriented
acquire
avenue
avenues
entirely
eliminating
community
bottlenecks
aletcl2
gics
h2so4
mlcc
mild
rationally
attempt
energetically
nondestructive
roadblock
2021
occupied
fluctuations
deficiency
mpyrfsi
automotive
sharply
narrowing
atmospher
dihydroxyanth
world
##benzene
2pause
fulfill
hpg
penetr
inevit
cooperat
deuterated
reserves
residual
polypyrrole
perfluorinated
unusual
diameters
noticeable
deterioration
triflate
participate
scaffold
scavenging
scenario
displacements
intriguing
endows
anticipated
hierarchical
zwitterionic
bcas
f2po2
hnbr
schem
target
alcohol
unfavorable
temporal
surrounding
nonflammable
monomethyl
glutaric
dominate
satisfy
immobil
encountered
recommended
deinsertion
bbes
birnessite
bscb
dynamical
eels
fumed
huge
hkust
hema
lgps
lfp
mos2
mathematical
nfnscs
papers
pseud
rigid
sdpn
sppo
vapor
zbbs
anisotropic
instrum
tolerance
alluaud
deploy
delocal
disadvan
polysulphide
percentage
unknown
carbonaceous
redistrib
abbreviated
diagnostic
hypoth
sought
removal
licf3so3
circumv
linixmny
dioxahexane
et3nhcl
04
1mn0
2h
2−
2me
2co0
320
5v
5o2
5mn1
69
63
6mn0
77
93
az
aat
big
bta
bqds
cx
cc
cat
cyl
crow
c2o4
ds
div
dam
dark
fig
fine
fra
fron
foss
fcn
feds
fau
fair
fresh
gs
gives
gold
ho
hc
her
hous
hso
hme
hces
hurd
ib
icl
ign
kn
kj
kvpo4f
ktfsa
la
lph
lever
m4
mal
mid
mich
mature
mwh
np
nor
ncm
named
oc
ow
oil
oac
ovi
otf
ps
p5
ple
pem
psi
p12
push
rm
rn
rz
ras
rab
rfb
roles
rmb
sco
sms
spher
ten
tort
taf
tms
ut
ubi
vast
vfb
wile
wse2
wave
xs
xas
−1
∼0
∼8
≈1
##oamp
##ooh
##omers
##dt
##dsi
##dra
##equ
##eled
##vable
##vice
##veng
##man
##ming
##mend
##nmr
##tt
##tz
##sonal
##bo
##be
##bu
##bated
##butyl
##ix
##ict
##iar
##ias
##iating
##ga
##gically
##ycle
##500
##ael
##aff
##aight
##pd
##py
##p3s
##pancies
##xil
##xine
##6br
##ho
##h2
##uly
##uples
##f5
##cor
##carbonate
##cycl
##90
##96
##18
##2s
##49
##−5
##−x
##ways
##w30
##ware
##3bs
##3li
##ero
##erts
##erative
thous
##onates
##atase
##esy
##esion
##esized
##ctx
##rove
##rovers
##itous
##inning
##inhibited
##enient
anti
anne
anatase
##al0
##alcl3
##icated
##orts
##organ
inform
inhib
##anion
##anth
##arr
##aries
##arrier
##entary
##iss
##isaged
##ash
##asial
##asma
##eti
tolu
##umbic
##olid
##igm
##ident
##idged
rev
reco
repro
ready
revolution
rearr
stre
stem
stop
staging
libr
cour
covers
co3s4
couples
##ulates
##stoichi
cong
convers
conformation
##mps
fortunately
alt
always
##uric
##ilation
##ilies
##iline
##illed
deform
deformation
proport
po2
pose
pof3
withstand
withdra
##odal
##odiation
##usive
##usias
isob
##elt
##uting
chcl
ch3co
as3bs
##irane
##uction
##iments
##imolar
##imension
beg
##aporation
entr
##osity
resting
##peridinium
##opes
##quitous
atta
atmc
exother
extinguish
compress
##aced
disc
metast
polyox
polygly
truly
why
whis
##forward
##yloxy
##amin
##amino
weights
perme
personal
##adays
##romell
meant
##ffer
##tailing
shape
stress
straight
##pped
adn
##ensions
difluorinated
##omaterial
##omains
##ommod
imply
implying
imperative
##anted
solving
uncover
unclear
uninhibited
capacitive
capacitance
seem
transverse
hauser
##ethamine
##ethyle
grign
formate
formulated
apply
##sof
polymerized
polymerizable
acceptor
specially
oxirane
##oxic
##co2
##cozo2
##thermal
sulfoxide
volta
stored
phmg
desodiation
undersc
##licit
methoxide
##culiar
preser
analysed
diffusometry
abilities
potentiod
divers
dioxide
diverse
diphenyl
intensive
evaporation
##pectin
surge
surpass
##urrent
##lomer
na5
naq
naoh
proving
amin
amyl
amino
activities
activate
nonstoichi
rough
routes
plasma
placed
indire
ethane
depict
poses
costly
processing
resonant
propanes
propag
lec
lean
leap
lifsa
modest
modern
modulation
modifications
coulomb
peculiar
##sulfur
102
microw
dimethacrylate
diminish
dimensions
##cluding
##akis
controvers
transfers
generations
generating
so4
so3
discusses
methodologies
##mitfsi
organics
afterward
productivity
nanometric
nanomaterial
memo
includes
included
obtaining
sodiation
interphasial
situation
##luorination
lipsi
achievable
impediments
goes
goal
hydrothermal
##lier
ila
ilas
##ordinary
methylated
functioning
envision
envisaged
consideration
reductively
exceeds
strategic
multitude
scaveng
optical
##ailing
manif
link
altered
altering
supports
##ishes
esw
esters
paves
pamps
calculate
kinetically
degrade
identifies
retain
retaining
month
superionic
license
probing
probably
190
19f
1991
1970
regions
regulation
alternate
suggestions
pvbba
libeti
emic
emission
tetrakis
security
outside
evolutions
##yridine
pfpe
pfpmc
lowering
equiv
equations
equimolar
service
50s
ago
agent
alkoxy
alkoxide
microcaps
dimethylacetamide
reacted
extension
convenient
suited
phosphorous
phosphoric
phosphazene
nanof
nanocon
greatest
borates
conditioning
##ounced
##scn
##upled
attentions
trifluoromethans
dissociate
doi
strict
passivated
hfe
accommod
derive
synthesised
simulate
simulated
voltammogram
dopants
thfpb
derivat
derivative
1500
bring
brings
bridged
flakes
xrpd
regardless
prevailing
mn3
##ahedral
stabilizes
spectroscopically
resultant
centered
ultral
atomistic
blende
demanding
pegdma
hexyl
corresponds
1700
partly
crystallinities
trifluoromethanesulfonimide
old
selecting
fabricate
dry
drive
drastic
fluoroprop
##12i
gasoline
publishing
##inuous
absorb
simpl
basing
slmbs
sns
addresses
suppression
emimcl
releasing
sulfonic
sulfonium
sulfonamide
8046
color
columbic
localized
counterion
assemblies
delivering
aiming
agglomer
raises
distort
esss
microstructural
blending
apc
promoted
comparisons
substitutes
diluents
##ogenous
entities
occurrence
prevented
produces
acrylic
acrylamido
maintained
buffer
piama
pyrene
concurrent
contributing
overviewed
consumed
consuming
trifluoromethylsulfon
collected
essentially
mitigation
mitigated
mitigates
broken
benign
pbas
pbdt
purified
tremend
versatility
##pyridine
angular
nearby
initiates
180
favor
##imeter
triphenyl
discussing
compete
competition
adsor
heterogeneous
minimizing
largest
lasting
nowadays
precision
li2s8
relevance
hardly
hmdsbr
meeting
accelerating
electrodepos
manganate
crosslinker
drawing
fractions
pyromell
##heets
discovered
undergoing
guided
distinctive
cpmas
##22fsi
reasons
adoption
##triethamine
propylpyrrolidinium
fuels
tman
tmdsi
accessible
individually
detector
irreversibility
##electrode
constitute
constitutes
consistently
ncarrier
synergy
synergic
dimeric
emphasized
tetrafluoropropyl
tetragonal
nanostructure
clustering
physico
al2cl6br
migrate
fix
labeled
vo9
voids
covered
alph3
methoxyethyl
arrays
saturation
benzimidazole
drawn
creative
napp
swcn
swelling
scales
turns
tendency
covalently
boundaries
industry
elimination
nanosheets
illustrate
complemented
establishes
heteroatom
families
onsager
polyelectrolytes
moiety
spatially
titanate
450
histor
nh4scn
pattern
terpolymer
terpyridine
tailoring
##flakes
unexplored
assessed
renders
trigger
disproportionate
mxenes
nascent
nacl
octahedral
stacked
stacking
excessive
tracked
nanotubes
ultimate
precursors
cf3so3li
unsatur
fillers
harness
modeled
mossy
rheology
rheological
conclusions
deviations
compromising
difluorophosphate
orientation
movements
borohydride
boroxine
hydration
assumed
building
eliminate
restricted
communication
001
bends
bending
dedicated
hrms
hrtem
pentafluoro
rationale
tertiary
wettability
##dwide
li2ohcl
ensure
attempts
shorter
shortage
energetic
undes
segmental
sequence
sequential
experience
experiences
2023
automatic
carboxylic
reconstruction
atmosphere
vulcanization
disordered
dihydroxy
worldwide
auxil
eei
fitting
mchs
pursuit
tis2
decoupling
decoupled
polyphosphonates
salicylo
salicylato
obeys
tetramethylammonium
extraordinary
hydroxyethyl
adsorbed
precisely
mesoporous
pyrophosphate
governed
errors
exploitation
categories
aaib
balance
humidity
hopeful
lamell
v2ctx
wo3−x
inferior
##angement
li10p3s
constrain
shielding
unevenly
cyclodextrin
paradigm
nanodomains
nanowire
multimodal
monotonic
deconvolution
inhomogeneous
methoxyethoxyethoxy
hydrosilation
virtue
spontaneously
ampl
bipyridine
geometry
lagp
pdmitfsi
v2o3cl2
##vasive
li3po4
copolyether
##ilayered
procedure
chronoamp
asymmetric
behind
bearing
enthusias
mafteg
complimentary
discrepancies
distinguished
percolation
adhesion
unwanted
hampered
hazards
##cogenide
nontoxic
correct
imidazolate
obvious
objective
##indrical
elongation
explosion
located
strikingly
expressions
ultrasonic
crystallograph
organohaloaluminate
involvement
1672
biopolymer
heterostructures
roadblocks
atmospheric
penetration
inevitable
f2po2h
scheme
immobilized
instrument
alluaudite
delocalization
disadvantages
hypothesized
circumvent
linixmnycozo2
2mecn
cx2
cylindrical
crown
damage
frag
fossil
fcntf
hsoi
ibn
ignored
lphc
michael
ncm90
own
p5w30
p1222fsi
pushing
rasb
smss
tortu
tafel
tmsp
ubiquitous
wiley
thousands
inhibition
toluene
library
course
proportions
withdrawing
##imensional
extinguishing
metastable
polyglycidol
straightforward
##ethylether
grignard
phmgcl
potentiodynamic
nonstoichiometric
roughly
indirect
microwave
scavenger
microcapsules
nanoconf
accommodate
fluoropropane
tremendous
pyromellitic
al2cl6br−
auxiliary
li10p3s12i
chronoamper
enthusiasm
0v
02
012
091
0gd
1in
1st
2acryl
2mo
220
3c
39
41
4000
5c
54
53
5o4
5mn0
5x10
6li
6000
79
88
89
800
820
aem
ace
age
aab
aver
aip
aug
aems
bn
bg
bx
bur
bod
bif
bim
bph
bistr
bivalent
bandw
bilayered
c4
ces
cis
cel
cpe
civ
cad
clo
cip
cert
dv
dp
dmp
dib
dode
dta
dest
dibs
divid
dynamically
destructive
eg
e2
eess
eco
fh
fing
fis
fibs
fall
fluorom
filed
fnscs
fpmc
felt
gese
germ
gather
hor
hce
hpo
h3o
hso4
holy
htt
iter
jap
ke
kh
kar
ket
kmbs
ly
lj
lor
las
lum
lost
lmb
lmas
lzn
lands
mb
mere
mpp
mention
mrad
mortem
nd
nv
nn
nation
nom
nant
nine
native
naph
norm
n4441
oe
oes
och
oems
p8
p1
pin
pion
pend
pits
pier
p2o7
p4441
qs
rt
rs
retic
rde
rupt
rix
sk
ster
sel
sib
squ
sac
ssi
sli
sax
sgd
sandw
tc
tent
tab
tme
tba
tightly
tester
vl
v3
valent
wr
wur
wise
wishes
youn
zif
zir
zero
∼7
∼2
∼20
∼99
∼500
≈8
##ots
##occ
##oalumin
##oked
##olytes
##opectin
##dm
##da
##dle
##den
##dis
##dated
##dynamic
##dimethyl
##ec
##eut
##ef4
##eks
##lap
##land
##vest
##viron
##ventional
##mium
##methacrylate
##mortem
##n2
##net
##ners
##tg
##ty
##tur
##top
##tpp
##sy
##sp
##su
##sw
##bd
##bations
##band
##ia
##ian
##iolane
##iophene
##ipped
##gst
##gest
##gence
##g−1
##grees
##gory
##grove
##ylen
##ysi
##ration
##rac
##run
##rich
##rally
##rone
##rfbs
##rupt
##rificial
##5mg
##a2
##aac
##pen
##pta
##pens
##p2o7
##p2s
##xw
##xic
##xist
##66
##650
##78
##7000
##hion
##hyl
##hield
##uated
##fan
##fluor
##fram
##82
##811
##c2
##cing
##cond
##cene
##came
##cds
##curity
##cycle
##93
##12o4
##2se
##2mo
##2mg
##kel
##kers
##ze
##zbs
##zian
##45
##47
##48
##4fe
##−n
##−air
##−sulfur
##wt
##with
##way
##w12o4
##w48
##3f
##3o2
##3oh
##3n1
##°c
##eration
##erning
##erpr
##erbated
##oned
##onite
##onically
##onential
##onomers
##onounced
##ativity
##aturing
##atob
##esi
##ctors
##roy
##rolyte
##itu
##itant
##itching
##leth
##inic
##infor
##inese
##integ
##invasive
##ena
##ender
##environ
##edies
ann
anod
answ
##alum
##alate
##ica
##ices
##iced
##ionate
##orate
##orient
inel
induct
inert
##lyzed
##anar
##anions
##ingent
##entzian
##reated
##regn
##requency
electrohe
##ism
##isive
##isition
##isting
##tered
##tering
##asp
##astr
##asiloxane
##etitive
##etimes
##ch2o
##ch3co
toxic
##olate
##ollen
##olub
##olds
##olute
##veil
##veled
##igent
##iding
##idence
##idimensional
read
reuse
reformation
rebu
reinfor
reorient
stat
stir
stfsi
##emed
##empl
##emission
lil
lii
li5
li7
lived
lio2
co3
cole
coinc
copyr
cointercal
##stit
contributed
concom
##ception
former
als
alme
alps
alone
altf
algor
alignment
al7000
al82
##urable
##gep2s
##ili
##iltr
##ilization
depp
decent
dehydro
deemed
promp
prohib
projected
pom
##usion
##uscri
isotropic
##icals
##ifact
##utine
chem
chel
ch3oh
chinese
ascor
##ires
##irical
##actic
##ials
##ucture
##thal
became
##iber
##apac
##apsh
encl
enters
ende
entailing
enrich
##osal
##osan
##osing
##osilyl
resin
resur
rescu
respond
##perid
##perform
maxw
##opic
##opent
##quencies
##quinones
attribut
atten
exac
exert
exclus
excluding
exempl
##ivates
compute
compressive
##acy
##acing
##acious
discl
discont
disinteg
##clinic
metad
polyion
trivalent
##mentally
what
##unting
##unched
##uniform
##fortunately
interd
intern
interf
interpen
##ylammonium
##amb
weeks
perfluoro
pertur
perception
##adem
##romethyl
##elligent
meter
meea
me2mo
##tafluoro
##taken
shared
shear
stringent
##formamide
adduct
adverse
adequ
##ested
##estone
##estoring
##enses
difluoride
##ometh
pronounced
prestoring
mgbr
mgf2
impair
impregn
##ante
org
orfb
metal−sulfur
solved
performs
moment
moo2
unp
unable
unpl
unav
unlock
uncont
unveil
unfortunately
capacitor
selen
seques
sectors
transmit
transpar
transient
##phthal
cycler
cyclable
##etheless
carbonated
carbonized
##otetr
grand
grail
grasp
formamide
aco
academ
##ucive
showc
##sily
##chanical
##channel
alluring
##oxid
##oxane
##coal
structuring
bet3
liquidlike
sulfation
sulfates
charcoal
##versal
##etrating
redor
come
comonomers
phalcl3
physi
ph2mg
deshield
neose
undertaken
electrified
##afluoride
methane
methanol
technically
##aphosph
##weight
analyse
diffuse
overha
overvol
overlap
##anck
##anced
parent
parylene
dipo
dianion
graphites
intended
intelligent
evolve
relies
relied
##pective
measurable
surfact
board
differently
differentiating
##loro
nax
nah
nailing
na4fe
##cape
signature
##brn2
##ologically
amines
amido
action
activating
nonafluoro
noncom
nonpolar
noninvasive
nonuniform
nonetheless
##generation
roco2
routine
plmp
planar
planck
index
ethoxyl
ethylen
transporting
newman
upper
upfield
updated
##ondensation
cry
processability
propane
propene
proposes
propionate
proposal
twin
##o2f2
designated
lifap
chalcogenide
thermome
butoxy
butanol
buthyl
researches
2046
zncl2
znmn2o4
znso4
clum
closed
additions
electroneut
noe
nob
chemicals
chemicalsh
obstruct
modular
modulate
insulating
inserts
afn
##sulfide
##sulfonyl
##sulfolane
##ynth
##achlor
##incingly
105
10−5
variations
combust
dimers
dimethylether
##osecond
intercalant
intercalating
intercalants
##points
magnesiation
elast
elusive
contin
contamin
contender
ecap
ecologically
furn
generates
soc
sota
##ynamics
consolid
understandings
therein
spite
spark
spacing
oxyethylene
oxydi
nani0
sipe
silyl
siw12o4
confron
confidence
sodiated
fe3
featuring
bisalt
polysulfone
oxygenated
impediment
going
hydrocarbon
hydrodynamic
hydrofluor
complexity
theoretically
determines
##ordinated
practice
explores
##ostatically
methylation
methylimidazole
methylacetamide
methylmethacrylate
methylalum
methylsulfolane
infra
infinite
infiltr
grown
grows
timefram
dms
dmim
dmts
multie
freely
articles
arena
manip
manag
mangrove
manuscri
lines
links
operable
supplement
remove
remedies
escds
reductions
degrades
degraded
coexist
strongest
greener
hev
hea
heav
identical
monog
lics
licenses
1980
2001
catalysis
catalyze
pcs
pcbs
scant
submer
suberate
threefold
regimes
similarly
similarity
similarities
alternating
glycidol
compart
137
133
flowing
mscm
pvac
silicides
empirical
abundances
abundancy
finer
emb
emds
emulsion
embi
powering
tetrachlor
secure
outlin
widefield
oxidizing
oxidizes
##yrr
##yrene
##rices
functionalities
functionalised
##ogether
conducive
equally
equipped
separating
50li
decarbon
decisive
agents
agree
filled
alkoxides
microem
microelectrode
microenviron
dimethylformamide
faced
reactants
extents
convol
convincingly
suitably
transitional
phosphine
nanoflakes
nanochannel
boric
borane
borne
##mons
lots
##loying
mg2cl3
fastest
glc
linearly
molal
acetyl
hybridization
progressive
progressively
##ireview
polarity
polarized
##degrees
shifted
door
offered
passivity
passivating
passivates
##ronous
##cu18
associate
spins
fundamentally
expense
explicit
exponential
##polyethers
dmeim
directed
directing
##ernible
paths
##pores
analyzing
consisted
chlorides
crossing
wherein
ethyltriethamine
pfgse
vehicular
voltammetric
##rams
##ophilic
15al0
bran
brand
bright
bruce
flight
flash
xray
examination
examining
prevention
advancing
advancements
latp
latent
mno
mnf2
dotkg
dotdm
minireview
##asticized
atomically
motivation
photoemission
bare
standpoint
timescale
directional
11b
112
11tfsi
1149
##rality
pegma
achievement
correspondence
170
pp13
vincent
define
defluorination
transformed
transformational
crystallizes
trifluoromethanesulfonate
opened
dsc3n1
estimates
fabricating
drives
fluoroether
morphological
universal
publications
31p
317
absolute
emergent
guest
halide
lightest
lightweight
mpy
matching
matrices
completed
constantly
slight
slmb
slopes
sno
sn2
snar
snse
snapsh
tunability
intra
maxima
maximal
printed
causing
oligoethylene
shuttles
125
128
##aluminous
hexafluorophosphoric
80s
##comings
##commons
instit
monoclinic
localised
standardized
follows
lacking
profiling
infrastr
assemble
assembling
3dom
3500
aimed
raib
raising
raise
distances
distributions
nmc11
nmc811
possessing
incorporate
incorporates
##conventional
shorten
shortens
shortcomings
dioxiolane
substitute
substituting
blocks
diluent
fails
inhibitor
inhibitors
chloros
pressures
configured
slowly
##ocapac
prospective
nucleophilicity
stefan
producing
postmortem
organo
organized
organometal
artificial
artifact
contrasted
aggregate
appeared
eutectics
235
niooh
pyridine
pyr14
sensor
thicker
thickening
concise
concerning
choices
comprise
preference
consume
calorimeter
vinylbenzene
collection
chloroaluminous
networks
pbe
pba
so2c2
versatile
##mo0
##mo3s4
deline
observing
nanoporous
##olecules
185
184
18650
favored
favoring
referenced
referred
lixfe
triazole
triethoxysilane
2980
405
406
##borates
disperses
necessity
robustness
minima
3002
bio
bian
biphenyl
edges
earlier
radiof
shells
diethylsulfide
multiphase
protonation
broader
broaden
broadened
broadband
accounting
integrate
integrating
bromo
frequently
frequencies
gpe1
lastly
##nered
##iloxanes
li2s4
displaying
distinction
originate
originates
originating
nanoparticle
140
1400
hardware
mda
meso
tfep
neutrally
oxidatively
predictive
galvanostatically
fashion
##heet
discoveries
dissoluted
idea
ideally
engineered
05o2
homo
melts
thinners
cosmo
adopt
adopting
##triethyl
playing
propylamine
propylpi
##composite
affords
powders
accuracy
accordance
macrocycle
##ogeneously
inherently
275
273
apparatus
desolvated
precious
irreversibly
constituent
neutrality
neutralization
245
373
fibers
fibrous
gaussian
ga5mg
ga2se
hoped
markets
ncf
innate
deintercalated
trimethylphosphate
lifetimes
viewpoint
viewpoints
coordinative
emphasizing
tetrafluoroethyl
tetrahedral
defective
affording
550
label
thought
repeat
trapped
methoxyleth
problematic
fluoroethylenecarbonate
dicyanometh
benzene
benzoate
precipitate
precipitated
precipitates
create
created
dgbs
ferric
hollow
holland
nafef4
nitrides
nitriles
switching
swollen
tends
anchor
anchors
anthrac
excited
ecsj
validation
validate
ultrafine
establishing
heterocomposite
dcb
duration
gaps
mcile
thiyl
thiazole
alleviates
grafting
accepted
acceptance
eventual
positions
immense
retardants
principal
innovations
history
merge
nh4ch3co
pivalate
terpy
tertafluoro
tailor
vacancy
stoichiometry
assists
tracer
interlayers
lifespans
governing
governs
exceptional
dispersity
##capacities
triggers
262
335
33mn0
bf1
cutting
donating
dodzn
erda
gaining
holding
##alents
##enesulfonyl
##acetyl
interpreting
periods
periodicals
hyperpolar
clarifies
exploiting
esterification
macromolecules
conjugative
1o2o2
340
category
dnp
fluids
filler
filling
harsh
harvest
lhce
risks
##fcs
stimulate
stimulates
compromise
compromised
compensating
sheets
captured
difluorophosphoric
movement
unraveled
acquired
acquisition
borophosphate
microsheet
dendrimer
linewidths
assume
assumption
profoundly
buildup
synergetic
reflected
reflectance
ferrocenyl
restricts
restricting
alet3
cfx
deduced
h2po4
milestone
pentyl
pentoxide
packed
packaging
rare
varies
wetting
walls
##volute
##certain
##alty
alike
ensures
polyanion
polyanions
polyaniline
orbat
undet
segments
segreg
soaking
removes
supercapacitor
doubt
doubly
fluctuation
avoiding
deficiencies
benchtop
carboxylate
reconstructed
unexpectedly
superconcentration
225
c2h
c2f
daily
eeis
foster
fulfilled
penalty
pursued
rolling
topic
polycarbonate
polycondensation
polyphosphazene
##amidoethoxy
perfect
adapt
adaptability
diameter
noticeably
participation
scaffolds
scenarios
intriguingly
mesopore
pyrolyzed
categorized
hierarchically
randomly
tammann
zwitterion
460
aaibs
axis
axial
bpy
balanced
laminated
saving
sometimes
sulphate
yloxy
##sn3
##glycol
thbz1
thbz2
##atomic
recovery
recovered
li10gep2s
converting
converted
##cellulose
dealloying
ch2ch2o
polymorphs
polyvinylidene
permits
cyclodextrins
appreciable
appreciably
paradox
diols
question
questions
quickly
nanodice
nanowires
visualize
monotonically
deconvolute
extending
lixsioy
ionogels
incompatible
incompatibility
encourage
encouraging
surveyed
spontaneous
6400
bh3
dichal
dichloro
fmt
fm2
fesas
fesem
garnet
garnered
iodide
llc
llz
o6a2
silane
tppli
walden
inclusion
inclusions
reagent
reagents
styrene
styrenesulfonyl
connectivity
pof2ome
isocyanate
chitosan
enlight
encapsulated
restrains
resemble
resembling
expectations
polyacetals
shapes
shaped
mgxmo3s4
dictates
elaborated
calibration
calibrated
hydrolytic
hydrolytically
hydrochloric
hydrochloride
hydrofluoroether
hydrofluoroethers
cavity
cavities
microfiber
ligament
carboxymethylcellulose
recycling
recyclability
fractal
meaningful
benzoquinone
descriptor
descriptors
octylimidazolium
dihydroxyanthraquinone
fulfills
cooperative
cooperativity
targeted
pseudo
pseudocapac
deployment
aatp
biggest
figure
front
fairly
freshly
gs−1
hoesy
housing
hurdles
kno
launched
leveraged
mali
middle
ocv
please
pemfcs
rnah
rzmbs
scope
spherical
utmost
##nmrli
##tzite
##cyclotetr
annealed
##organosilyl
reprod
revolutionize
rearrangement
stret
stemming
conversions
altogether
po2f2
isobut
ch3cook
beginning
attached
exothermic
compression
discernible
polyoxometal
whiskers
meantime
voltaic
underscores
preserve
diversity
na5in
naqrfbs
aminopropyl
amylopectin
propanesulfonyl
propagation
1027
so42
so3h
afterwards
envisioned
manifests
months
1970s
pvbbapegmex
equivalents
conveniently
trifluoromethansulfonyl
strictly
derivatization
ultralong
simplest
distortion
trifluoromethylsulfony
benignity
adsorbs
electrodeposits
fixation
creativecommons
swcnt
historically
unsaturated
undesired
dihydroxybenzene
constraints
crystallographic
instrumentation
fragments
tortuosity
nanoconfined
chronoamperometry
1in−0
2acrylamidoethoxy
ageing
bgpe
body
bimetal
bandwidth
c4f
cadmium
cloth
dmpim
dodecan
destroy
divided
fingerpr
fischer
fluoromethane
gese2
germination
horiz
hpo3f
http
japan
lorentzian
laser
lumo
lzno
landscape
merely
mppyrr
nvp
nominal
nantf2
naphth
p8w48
pione
pendant
pierce
qsel
reticular
rixs
steric
sacrificial
saxs
sgdib
sandwich
tcp
tentative
vlf
wrap
wurtzite
young
zircon
##tppli
##atoborate
answer
inelastic
inductively
electrohealing
##olubility
rebuil
copyright
concomitant
alme3
alpss
algorith
al82cu18
prohibitive
ascorbic
endeav
enriched
rescuing
maxwell
attributable
attenuated
exacerbated
exclusively
discontinuous
metadynamics
interpenetrating
perfluoropolyethers
perturbations
adequate
mgbr2
impregnated
unplasticized
uncontrol
transparent
physiochemical
deshielding
neosepta
##aphosphate
overhauser
dipole
surfactant
na4fe3
amidoamine
roco2li
routinely
ethylenedi
thermomechanical
electroneutrality
chemicalshift
obstructed
modularity
combustion
contaminants
contenders
consolidated
sparked
siw12o40
hydrocarbons
hydrofluoric
methylalumoxane
timeframes
management
manuscript
heavy
monoglyme
1980s
tetrachloride
outlines
decarbonization
nanochannels
##degreesc
pp13tfsa
infrastructure
nmc111
organometallic
vinylbenzeneboronic
so2c2f5
lixfepo4
radiofrequency
propylpiperidinium
ga5mg2
ga2se3
methoxylethoxyl
dicyanomethide
hollandite
anthracene
nh4ch3coo
tertafluoroborate
harvesting
li10gep2s12
##cyclotetrasiloxane
fingerprints
