{
  "version": "1.0",
  "truncation": null,
  "padding": null,
  "added_tokens": [],
  "normalizer": {
    "type": "BertNormalizer",
    "clean_text": true,
    "handle_chinese_chars": true,
    "strip_accents": null,
    "lowercase": true
  },
  "pre_tokenizer": {
    "type": "BertPreTokenizer"
  },
  "post_processor": {
    "type": "TemplateProcessing",
    "single": [
      {
        "SpecialToken": {
          "id": "[CLS]",
          "type_id": 0
        }
      },
      {
        "Sequence": {
          "id": "A",
          "type_id": 0
        }
      },
      {
        "SpecialToken": {
          "id": "[SEP]",
          "type_id": 0
        }
      }
    ],
    "pair": [
      {
        "SpecialToken": {
          "id": "[CLS]",
          "type_id": 0
        }
      },
      {
        "Sequence": {
          "id": "A",
          "type_id": 0
        }
      },
      {
        "SpecialToken": {
          "id": "[SEP]",
          "type_id": 0
        }
      },
      {
        "Sequence": {
          "id": "B",
          "type_id": 1
        }
      },
      {
        "SpecialToken": {
          "id": "[SEP]",
          "type_id": 1
        }
      }
    ],
    "special_tokens": {
      "[CLS]": {
        "id": "[CLS]",
        "ids": [
          2
        ],
        "tokens": [
          "[CLS]"
        ]
      },
      "[SEP]": {
        "id": "[SEP]",
        "ids": [
          3
        ],
        "tokens": [
          "[SEP]"
        ]
      }
    }
  },
  "decoder": {
    "type": "WordPiece",
    "prefix": "##",
    "cleanup": true
  },
  "model": {
    "type": "WordPiece",
    "unk_token": "[UNK]",
    "continuing_subword_prefix": "##",
    "max_input_chars_per_word": 100,
    "vocab": {
      "[PAD": 0,
      "[UNK]": 1,
      "[CLS]": 2,
      "[SEP]": 3,
      "[MASK]": 4,
      "!": 5,
      "$": 6,
      "%": 7,
      "&": 8,
      "'": 9,
      "(": 10,
      ")": 11,
      "*": 12,
      "+": 13,
      ",": 14,
      "-": 15,
      ".": 16,
      "/": 17,
      "0": 18,
      "1": 19,
      "2": 20,
      "3": 21,
      "4": 22,
      "5": 23,
      "6": 24,
      "7": 25,
      "8": 26,
      "9": 27,
      ":": 28,
      ";": 29,
      "<": 30,
      "=": 31,
      ">": 32,
      "?": 33,
      "@": 34,
      "[": 35,
      "\\": 36,
      "]": 37,
      "a": 38,
      "b": 39,
      "c": 40,
      "d": 41,
      "e": 42,
      "f": 43,
      "g": 44,
      "h": 45,
      "i": 46,
      "j": 47,
      "k": 48,
      "l": 49,
      "m": 50,
      "n": 51,
      "o": 52,
      "p": 53,
      "q": 54,
      "r": 55,
      "s": 56,
      "t": 57,
      "u": 58,
      "v": 59,
      "w": 60,
      "x": 61,
      "y": 62,
      "z": 63,
      "{": 64,
      "|": 65,
      "}": 66,
      "~": 67,
      "°": 68,
      "±": 69,
      "µ": 70,
      "·": 71,
      "×": 72,
      "α": 73,
      "β": 74,
      "δ": 75,
      "μ": 76,
      "π": 77,
      "υ": 78,
      "–": 79,
      "—": 80,
      "‘": 81,
      "’": 82,
      "“": 83,
      "”": 84,
      "•": 85,
      "′": 86,
      "₅": 87,
      "₆": 88,
      "↔": 89,
      "−": 90,
      "∼": 91,
      "≈": 92,
      "≤": 93,
      "≥": 94,
      "##o": 95,
      "##d": 96,
      "##e": 97,
      "##l": 98,
      "##v": 99,
      "##m": 100,
      "##n": 101,
      "##t": 102,
      "##s": 103,
      "##b": 104,
      "##i": 105,
      "##g": 106,
      "##y": 107,
      "##r": 108,
      "##5": 109,
      "##a": 110,
      "##0": 111,
      "##p": 112,
      "##x": 113,
      "##6": 114,
      "##7": 115,
      "##h": 116,
      "##u": 117,
      "##f": 118,
      "##8": 119,
      "##c": 120,
      "##9": 121,
      "##1": 122,
      "##2": 123,
      "##k": 124,
      "##z": 125,
      "##4": 126,
      "##−": 127,
      "##w": 128,
      "##3": 129,
      "##j": 130,
      "##q": 131,
      "##°": 132,
      "##υ": 133,
      "##₆": 134,
      "##₅": 135,
      "##er": 136,
      "th": 137,
      "##on": 138,
      "##at": 139,
      "##es": 140,
      "the": 141,
      "##ct": 142,
      "##ro": 143,
      "##it": 144,
      "##le": 145,
      "##in": 146,
      "##en": 147,
      "##ed": 148,
      "an": 149,
      "##al": 150,
      "##ic": 151,
      "##ion": 152,
      "##or": 153,
      "of": 154,
      "in": 155,
      "##ly": 156,
      "##an": 157,
      "and": 158,
      "##ar": 159,
      "##ing": 160,
      "##lect": 161,
      "##ent": 162,
      "elect": 163,
      "##re": 164,
      "electro": 165,
      "##is": 166,
      "##ter": 167,
      "##as": 168,
      "##et": 169,
      "##ation": 170,
      "##ch": 171,
      "to": 172,
      "##um": 173,
      "##ith": 174,
      "##ol": 175,
      "##ve": 176,
      "##ig": 177,
      "##id": 178,
      "re": 179,
      "##ies": 180,
      "st": 181,
      "##lyt": 182,
      "##em": 183,
      "electrolyt": 184,
      "li": 185,
      "##ity": 186,
      "co": 187,
      "##ul": 188,
      "##st": 189,
      "con": 190,
      "##atter": 191,
      "##ce": 192,
      "##mp": 193,
      "for": 194,
      "batter": 195,
      "al": 196,
      "##ur": 197,
      "##ge": 198,
      "ion": 199,
      "##il": 200,
      "de": 201,
      "pro": 202,
      "##ab": 203,
      "##ium": 204,
      "po": 205,
      "##igh": 206,
      "with": 207,
      "##od": 208,
      "##ate": 209,
      "##us": 210,
      "is": 211,
      "##ical": 212,
      "##ow": 213,
      "##if": 214,
      "##el": 215,
      "##ut": 216,
      "electrolyte": 217,
      "ch": 218,
      "##pe": 219,
      "as": 220,
      "##ir": 221,
      "##act": 222,
      "##ial": 223,
      "##uct": 224,
      "##th": 225,
      "high": 226,
      "batteries": 227,
      "##im": 228,
      "##ive": 229,
      "sol": 230,
      "on": 231,
      "be": 232,
      "##ib": 233,
      "##ap": 234,
      "##ver": 235,
      "en": 236,
      "##os": 237,
      "lith": 238,
      "res": 239,
      "are": 240,
      "##per": 241,
      "ma": 242,
      "that": 243,
      "##op": 244,
      "lithium": 245,
      "##qu": 246,
      "at": 247,
      "##ure": 248,
      "##ts": 249,
      "ex": 250,
      "by": 251,
      "##ated": 252,
      "##iv": 253,
      "comp": 254,
      "##ac": 255,
      "##arge": 256,
      "##ere": 257,
      "spe": 258,
      "dis": 259,
      "##cl": 260,
      "##ance": 261,
      "met": 262,
      "electrolytes": 263,
      "##able": 264,
      "##iz": 265,
      "##emical": 266,
      "su": 267,
      "poly": 268,
      "tr": 269,
      "##gy": 270,
      "##ment": 271,
      "nm": 272,
      "wh": 273,
      "##un": 274,
      "##for": 275,
      "##ility": 276,
      "##ide": 277,
      "this": 278,
      "us": 279,
      "inter": 280,
      "nmr": 281,
      "##yl": 282,
      "##am": 283,
      "battery": 284,
      "##ater": 285,
      "##duct": 286,
      "we": 287,
      "electroch": 288,
      "per": 289,
      "##mer": 290,
      "##ode": 291,
      "##ad": 292,
      "##ess": 293,
      "##len": 294,
      "##ition": 295,
      "##rom": 296,
      "##ased": 297,
      "##ell": 298,
      "me": 299,
      "##ff": 300,
      "##ros": 301,
      "##ta": 302,
      "sh": 303,
      "ener": 304,
      "cy": 305,
      "str": 306,
      "##form": 307,
      "electrochemical": 308,
      "##pp": 309,
      "cap": 310,
      "ad": 311,
      "##est": 312,
      "##ens": 313,
      "dif": 314,
      "energy": 315,
      "##ort": 316,
      "sy": 317,
      "##ous": 318,
      "diff": 319,
      "##om": 320,
      "pr": 321,
      "##action": 322,
      "##ath": 323,
      "mg": 324,
      "imp": 325,
      "##tr": 326,
      "##ulf": 327,
      "##ud": 328,
      "based": 329,
      "##ant": 330,
      "##ution": 331,
      "was": 332,
      "##ations": 333,
      "electrod": 334,
      "##charge": 335,
      "##aterial": 336,
      "material": 337,
      "car": 338,
      "or": 339,
      "metal": 340,
      "##vel": 341,
      "conduct": 342,
      "solv": 343,
      "perform": 344,
      "mo": 345,
      "##ans": 346,
      "un": 347,
      "##ich": 348,
      "capac": 349,
      "se": 350,
      "##bon": 351,
      "##ew": 352,
      "spect": 353,
      "##lu": 354,
      "##ability": 355,
      "cath": 356,
      "trans": 357,
      "##ved": 358,
      "ionic": 359,
      "capacity": 360,
      "##der": 361,
      "cell": 362,
      "##ph": 363,
      "ha": 364,
      "##cent": 365,
      "cycl": 366,
      "##eth": 367,
      "##rosc": 368,
      "carbon": 369,
      "##vi": 370,
      "##ot": 371,
      "##ay": 372,
      "##roscop": 373,
      "from": 374,
      "were": 375,
      "eff": 376,
      "##ect": 377,
      "##and": 378,
      "which": 379,
      "##ivity": 380,
      "gr": 381,
      "form": 382,
      "have": 383,
      "app": 384,
      "low": 385,
      "##ign": 386,
      "##so": 387,
      "performance": 388,
      "polymer": 389,
      "##und": 390,
      "##ents": 391,
      "ac": 392,
      "##uc": 393,
      "##ific": 394,
      "stud": 395,
      "##00": 396,
      "add": 397,
      "##tent": 398,
      "##age": 399,
      "show": 400,
      "##roscopy": 401,
      "##tic": 402,
      "been": 403,
      "##si": 404,
      "##ence": 405,
      "##ase": 406,
      "##chan": 407,
      "##ite": 408,
      "##stem": 409,
      "system": 410,
      "devel": 411,
      "develop": 412,
      "##aly": 413,
      "spec": 414,
      "all": 415,
      "electrode": 416,
      "cathode": 417,
      "dens": 418,
      "reaction": 419,
      "##port": 420,
      "##gn": 421,
      "##cre": 422,
      "can": 423,
      "##ese": 424,
      "air": 425,
      "ox": 426,
      "##que": 427,
      "##tain": 428,
      "conductivity": 429,
      "materials": 430,
      "##umin": 431,
      "##ox": 432,
      "##co": 433,
      "sal": 434,
      "struct": 435,
      "spectroscopy": 436,
      "bet": 437,
      "these": 438,
      "##ther": 439,
      "##ine": 440,
      "magn": 441,
      "##bs": 442,
      "liqu": 443,
      "liquid": 444,
      "##perat": 445,
      "##ace": 446,
      "##ied": 447,
      "##ized": 448,
      "sulf": 449,
      "resul": 450,
      "##end": 451,
      "vol": 452,
      "char": 453,
      "stor": 454,
      "solution": 455,
      "has": 456,
      "##ible": 457,
      "tem": 458,
      "mechan": 459,
      "##vers": 460,
      "their": 461,
      "##etr": 462,
      "using": 463,
      "alumin": 464,
      "##etic": 465,
      "density": 466,
      "##osition": 467,
      "stability": 468,
      "storage": 469,
      "red": 470,
      "com": 471,
      "##str": 472,
      "##fsi": 473,
      "##ative": 474,
      "ph": 475,
      "##ore": 476,
      "discharge": 477,
      "des": 478,
      "##ici": 479,
      "pre": 480,
      "te": 481,
      "##centr": 482,
      "temperat": 483,
      "##ong": 484,
      "ne": 485,
      "##ges": 486,
      "under": 487,
      "##lic": 488,
      "inv": 489,
      "proper": 490,
      "##ile": 491,
      "electr": 492,
      "##af": 493,
      "concentr": 494,
      "##erm": 495,
      "##cess": 496,
      "meth": 497,
      "##ain": 498,
      "##chn": 499,
      "techn": 500,
      "propert": 501,
      "##cul": 502,
      "pres": 503,
      "anode": 504,
      "##aph": 505,
      "##queous": 506,
      "anion": 507,
      "deg": 508,
      "##face": 509,
      "##ue": 510,
      "##lene": 511,
      "carbonate": 512,
      "differ": 513,
      "##ities": 514,
      "how": 515,
      "##we": 516,
      "fo": 517,
      "##ates": 518,
      "analy": 519,
      "##ork": 520,
      "properties": 521,
      "incre": 522,
      "also": 523,
      "diffus": 524,
      "effect": 525,
      "##ylene": 526,
      "##fer": 527,
      "##ass": 528,
      "##ization": 529,
      "mechanis": 530,
      "ab": 531,
      "over": 532,
      "##erved": 533,
      "##ared": 534,
      "recharge": 535,
      "##ments": 536,
      "##pl": 537,
      "##pt": 538,
      "##anc": 539,
      "par": 540,
      "potent": 541,
      "impro": 542,
      "##ween": 543,
      "di": 544,
      "here": 545,
      "##ever": 546,
      "salt": 547,
      "between": 548,
      "graph": 549,
      "int": 550,
      "##estig": 551,
      "however": 552,
      "ev": 553,
      "rel": 554,
      "investig": 555,
      "prom": 556,
      "##pect": 557,
      "mechanism": 558,
      "rechargeable": 559,
      "##sis": 560,
      "##ane": 561,
      "potential": 562,
      "meas": 563,
      "##ucle": 564,
      "temperature": 565,
      "sur": 566,
      "##luo": 567,
      "aluminum": 568,
      "dem": 569,
      "solid": 570,
      "formation": 571,
      "##ci": 572,
      "bo": 573,
      "##ary": 574,
      "different": 575,
      "##urr": 576,
      "##enc": 577,
      "##lo": 578,
      "##ating": 579,
      "applic": 580,
      "nucle": 581,
      "it": 582,
      "##ear": 583,
      "##led": 584,
      "development": 585,
      "##cal": 586,
      "na": 587,
      "##gan": 588,
      "prov": 589,
      "##acter": 590,
      "used": 591,
      "results": 592,
      "character": 593,
      "##ca": 594,
      "##rou": 595,
      "sign": 596,
      "aqueous": 597,
      "##ising": 598,
      "##odes": 599,
      "##itive": 600,
      "##br": 601,
      "##olo": 602,
      "##ides": 603,
      "hy": 604,
      "work": 605,
      "##ree": 606,
      "##ures": 607,
      "##se": 608,
      "##uring": 609,
      "solvent": 610,
      "due": 611,
      "am": 612,
      "act": 613,
      "non": 614,
      "##gen": 615,
      "##cus": 616,
      "than": 617,
      "such": 618,
      "diffusion": 619,
      "ro": 620,
      "charge": 621,
      "pl": 622,
      "sulfur": 623,
      "its": 624,
      "##lex": 625,
      "ind": 626,
      "cycling": 627,
      "systems": 628,
      "eth": 629,
      "more": 630,
      "dep": 631,
      "##ally": 632,
      "curr": 633,
      "syn": 634,
      "transport": 635,
      "both": 636,
      "new": 637,
      "##ction": 638,
      "##ard": 639,
      "pos": 640,
      "##ibs": 641,
      "cells": 642,
      "##gh": 643,
      "revers": 644,
      "surface": 645,
      "cost": 646,
      "ions": 647,
      "sei": 648,
      "current": 649,
      "structure": 650,
      "electrodes": 651,
      "##ethyl": 652,
      "##ety": 653,
      "num": 654,
      "study": 655,
      "cm": 656,
      "saf": 657,
      "up": 658,
      "##ers": 659,
      "##ond": 660,
      "##onstr": 661,
      "##ights": 662,
      "cr": 663,
      "##ri": 664,
      "qu": 665,
      "process": 666,
      "##eld": 667,
      "promising": 668,
      "##ield": 669,
      "reson": 670,
      "##tage": 671,
      "prop": 672,
      "exper": 673,
      "mole": 674,
      "##sed": 675,
      "effici": 676,
      "##comp": 677,
      "underst": 678,
      "cor": 679,
      "tw": 680,
      "le": 681,
      "##o2": 682,
      "##ging": 683,
      "demonstr": 684,
      "design": 685,
      "synth": 686,
      "##−1": 687,
      "##ast": 688,
      "lif": 689,
      "during": 690,
      "fir": 691,
      "##istr": 692,
      "present": 693,
      "chal": 694,
      "graphite": 695,
      "first": 696,
      "##ined": 697,
      "magnetic": 698,
      "signific": 699,
      "numb": 700,
      "experim": 701,
      "therm": 702,
      "challen": 703,
      "contain": 704,
      "##ively": 705,
      "but": 706,
      "theor": 707,
      "resear": 708,
      "species": 709,
      "concentration": 710,
      "research": 711,
      "##me": 712,
      "##ari": 713,
      "##ganic": 714,
      "resonance": 715,
      "20": 716,
      "higher": 717,
      "im": 718,
      "zn": 719,
      "##emistr": 720,
      "nuclear": 721,
      "two": 722,
      "significant": 723,
      "##ene": 724,
      "cl": 725,
      "##ight": 726,
      "understand": 727,
      "addition": 728,
      "electron": 729,
      "no": 730,
      "rate": 731,
      "##hib": 732,
      "chemical": 733,
      "cycles": 734,
      "specific": 735,
      "ob": 736,
      "##ub": 737,
      "lit": 738,
      "##olution": 739,
      "use": 740,
      "analysis": 741,
      "synthes": 742,
      "##view": 743,
      "measure": 744,
      "mod": 745,
      "not": 746,
      "##ind": 747,
      "ins": 748,
      "recent": 749,
      "coul": 750,
      "voltage": 751,
      "##hibit": 752,
      "pe": 753,
      "molecul": 754,
      "af": 755,
      "sim": 756,
      "##sulf": 757,
      "##yn": 758,
      "##f6": 759,
      "##ach": 760,
      "##xt": 761,
      "##inc": 762,
      "##rees": 763,
      "solutions": 764,
      "large": 765,
      "obs": 766,
      "10": 767,
      "##ress": 768,
      "reve": 769,
      "##ynam": 770,
      "vari": 771,
      "comb": 772,
      "degrees": 773,
      "##les": 774,
      "##ically": 775,
      "cyc": 776,
      "mic": 777,
      "sit": 778,
      "zinc": 779,
      "##ting": 780,
      "technolo": 781,
      "dim": 782,
      "##ose": 783,
      "intercal": 784,
      "gel": 785,
      "##po": 786,
      "##clud": 787,
      "magnes": 788,
      "el": 789,
      "tim": 790,
      "##ak": 791,
      "##ps": 792,
      "##all": 793,
      "report": 794,
      "##lent": 795,
      "adv": 796,
      "cont": 797,
      "transfer": 798,
      "##ie": 799,
      "##ill": 800,
      "investigated": 801,
      "##ency": 802,
      "magnesium": 803,
      "ec": 804,
      "ty": 805,
      "safety": 806,
      "##low": 807,
      "##gies": 808,
      "decomp": 809,
      "##ener": 810,
      "##dro": 811,
      "fur": 812,
      "g−1": 813,
      "gener": 814,
      "##ination": 815,
      "stable": 816,
      "##emistry": 817,
      "measurements": 818,
      "cation": 819,
      "field": 820,
      "applications": 821,
      "lay": 822,
      "so": 823,
      "##ult": 824,
      "##osph": 825,
      "discus": 826,
      "##unction": 827,
      "method": 828,
      "into": 829,
      "containing": 830,
      "##ynamic": 831,
      "further": 832,
      "##mit": 833,
      "cons": 834,
      "##adi": 835,
      "organic": 836,
      "##rough": 837,
      "understanding": 838,
      "after": 839,
      "##ra": 840,
      "there": 841,
      "product": 842,
      "vi": 843,
      "review": 844,
      "one": 845,
      "number": 846,
      "sp": 847,
      "well": 848,
      "alcl": 849,
      "##ives": 850,
      "solvation": 851,
      "solvents": 852,
      "oxy": 853,
      "prep": 854,
      "enh": 855,
      "nan": 856,
      "mem": 857,
      "si": 858,
      "includ": 859,
      "conf": 860,
      "obtain": 861,
      "##2o": 862,
      "mah": 863,
      "##trib": 864,
      "appro": 865,
      "fut": 866,
      "sod": 867,
      "diss": 868,
      "interaction": 869,
      "observed": 870,
      "future": 871,
      "##ibility": 872,
      "exhibit": 873,
      "interph": 874,
      "reactions": 875,
      "ethylene": 876,
      "situ": 877,
      "decomposition": 878,
      "##out": 879,
      "chan": 880,
      "##luor": 881,
      "studied": 882,
      "reversible": 883,
      "membr": 884,
      "cal": 885,
      "rights": 886,
      "##osed": 887,
      "reserved": 888,
      "##ome": 889,
      "fe": 890,
      "##gg": 891,
      "##ues": 892,
      "lip": 893,
      "redox": 894,
      "ach": 895,
      "##endr": 896,
      "##luoro": 897,
      "sodium": 898,
      "achie": 899,
      "bis": 900,
      "dendr": 901,
      "mi": 902,
      "polysulf": 903,
      "most": 904,
      "oxygen": 905,
      "deter": 906,
      "found": 907,
      "##cial": 908,
      "##row": 909,
      "imped": 910,
      "indic": 911,
      "efficiency": 912,
      "life": 913,
      "challenges": 914,
      "limit": 915,
      "intercalation": 916,
      "##ention": 917,
      "##ilic": 918,
      "while": 919,
      "##etry": 920,
      "lipf6": 921,
      "go": 922,
      "##ors": 923,
      "compared": 924,
      "trif": 925,
      "##vier": 926,
      "hydro": 927,
      "##li": 928,
      "through": 929,
      "complex": 930,
      "##soci": 931,
      "acid": 932,
      "partic": 933,
      "improve": 934,
      "##sevier": 935,
      "theoret": 936,
      "elsevier": 937,
      "interphase": 938,
      "water": 939,
      "##ged": 940,
      "##use": 941,
      "##ize": 942,
      "determ": 943,
      "il": 944,
      "##ord": 945,
      "##mental": 946,
      "pract": 947,
      "increas": 948,
      "theoretical": 949,
      "tfsi": 950,
      "##ving": 951,
      "anodes": 952,
      "##ider": 953,
      "various": 954,
      "##ha": 955,
      "expl": 956,
      "cycle": 957,
      "layer": 958,
      "including": 959,
      "obtained": 960,
      "ray": 961,
      "##ost": 962,
      "methyl": 963,
      "dynamic": 964,
      "ful": 965,
      "function": 966,
      "other": 967,
      "##ataly": 968,
      "inf": 969,
      "state": 970,
      "##ified": 971,
      "env": 972,
      "main": 973,
      "active": 974,
      "dev": 975,
      "import": 976,
      "consider": 977,
      "##olar": 978,
      "##elf": 979,
      "##ame": 980,
      "##ffici": 981,
      "techni": 982,
      "quant": 983,
      "novel": 984,
      "practical": 985,
      "term": 986,
      "experiment": 987,
      "thermal": 988,
      "grow": 989,
      "id": 990,
      "##iron": 991,
      "respect": 992,
      "synthesized": 993,
      "prepared": 994,
      "##amm": 995,
      "reduct": 996,
      "time": 997,
      "discussed": 998,
      "environ": 999,
      "100": 1000,
      "dm": 1001,
      "##ound": 1002,
      "exce": 1003,
      "det": 1004,
      "fluor": 1005,
      "##onyl": 1006,
      "strate": 1007,
      "lead": 1008,
      "litfsi": 1009,
      "transference": 1010,
      "devic": 1011,
      "mult": 1012,
      "ran": 1013,
      "beha": 1014,
      "when": 1015,
      "long": 1016,
      "sca": 1017,
      "##ip": 1018,
      "composition": 1019,
      "molecular": 1020,
      "enhanc": 1021,
      "behavi": 1022,
      "opt": 1023,
      "##ail": 1024,
      "chemistry": 1025,
      "oxide": 1026,
      "dire": 1027,
      "impedance": 1028,
      "free": 1029,
      "self": 1030,
      "##edi": 1031,
      "##oxy": 1032,
      "201": 1033,
      "ar": 1034,
      "man": 1035,
      "##bic": 1036,
      "##ert": 1037,
      "##anes": 1038,
      "##ist": 1039,
      "##ack": 1040,
      "cathodes": 1041,
      "##luorom": 1042,
      "ca": 1043,
      "lin": 1044,
      "oper": 1045,
      "alter": 1046,
      "supp": 1047,
      "##mercial": 1048,
      "gradi": 1049,
      "reveal": 1050,
      "##ep": 1051,
      "##rad": 1052,
      "##cc": 1053,
      "##ke": 1054,
      "##ish": 1055,
      "rem": 1056,
      "pow": 1057,
      "commercial": 1058,
      "via": 1059,
      "good": 1060,
      "es": 1061,
      "##ured": 1062,
      "herein": 1063,
      "poss": 1064,
      "trifluorom": 1065,
      "our": 1066,
      "val": 1067,
      "compound": 1068,
      "important": 1069,
      "pa": 1070,
      "##atic": 1071,
      "##ular": 1072,
      "only": 1073,
      "##etric": 1074,
      "calcul": 1075,
      "reduction": 1076,
      "ft": 1077,
      "kin": 1078,
      "##ational": 1079,
      "prot": 1080,
      "beca": 1081,
      "##tract": 1082,
      "additive": 1083,
      "degrad": 1084,
      "products": 1085,
      "because": 1086,
      "flex": 1087,
      "##ms": 1088,
      "##inated": 1089,
      "coe": 1090,
      "strong": 1091,
      "mob": 1092,
      "##uced": 1093,
      "improved": 1094,
      "positive": 1095,
      "significantly": 1096,
      "gre": 1097,
      "he": 1098,
      "mu": 1099,
      "vis": 1100,
      "pul": 1101,
      "compon": 1102,
      "technology": 1103,
      "ident": 1104,
      "kinetic": 1105,
      "coeffici": 1106,
      "ret": 1107,
      "##yst": 1108,
      "##ential": 1109,
      "##ombic": 1110,
      "order": 1111,
      "shows": 1112,
      "room": 1113,
      "mon": 1114,
      "##res": 1115,
      "coord": 1116,
      "decre": 1117,
      "highly": 1118,
      "super": 1119,
      "studies": 1120,
      "anions": 1121,
      "increase": 1122,
      "##ances": 1123,
      "membrane": 1124,
      "gradient": 1125,
      "ir": 1126,
      "lic": 1127,
      "rat": 1128,
      "##par": 1129,
      "##ural": 1130,
      "prob": 1131,
      "salts": 1132,
      "generation": 1133,
      "approach": 1134,
      "respectively": 1135,
      "range": 1136,
      "rati": 1137,
      "19": 1138,
      "200": 1139,
      "cataly": 1140,
      "pc": 1141,
      "sc": 1142,
      "##til": 1143,
      "##rel": 1144,
      "##ilar": 1145,
      "iss": 1146,
      "sub": 1147,
      "mechanisms": 1148,
      "confir": 1149,
      "scale": 1150,
      "degradation": 1151,
      "grou": 1152,
      "##spect": 1153,
      "three": 1154,
      "reg": 1155,
      "requ": 1156,
      "sugg": 1157,
      "phase": 1158,
      "provide": 1159,
      "imide": 1160,
      "similar": 1161,
      "reported": 1162,
      "altern": 1163,
      "suggest": 1164,
      "gly": 1165,
      "sm": 1166,
      "##itr": 1167,
      "compar": 1168,
      "structures": 1169,
      "depend": 1170,
      "model": 1171,
      "coulombic": 1172,
      "13": 1173,
      "flow": 1174,
      "ms": 1175,
      "pv": 1176,
      "silic": 1177,
      "##az": 1178,
      "growth": 1179,
      "optim": 1180,
      "emp": 1181,
      "lib": 1182,
      "compos": 1183,
      "electric": 1184,
      "presence": 1185,
      "abund": 1186,
      "cryst": 1187,
      "dynamics": 1188,
      "fin": 1189,
      "##elect": 1190,
      "##amp": 1191,
      "##ful": 1192,
      "##ward": 1193,
      "attract": 1194,
      "increasing": 1195,
      "em": 1196,
      "##fac": 1197,
      "formed": 1198,
      "power": 1199,
      "tetr": 1200,
      "##oy": 1201,
      "##ning": 1202,
      "##olved": 1203,
      "##fore": 1204,
      "sec": 1205,
      "showed": 1206,
      "concentrations": 1207,
      "application": 1208,
      "proposed": 1209,
      "could": 1210,
      "alcl3": 1211,
      "interactions": 1212,
      "experimental": 1213,
      "devices": 1214,
      "out": 1215,
      "wide": 1216,
      "##ds": 1217,
      "##alent": 1218,
      "init": 1219,
      "oxid": 1220,
      "evolution": 1221,
      "peo": 1222,
      "##tribut": 1223,
      "particular": 1224,
      "flexible": 1225,
      "confirm": 1226,
      "aibs": 1227,
      "##rol": 1228,
      "interface": 1229,
      "demonstrated": 1230,
      "typ": 1231,
      "excel": 1232,
      "ele": 1233,
      "est": 1234,
      "ether": 1235,
      "find": 1236,
      "##ole": 1237,
      "##yr": 1238,
      "##ric": 1239,
      "##ites": 1240,
      "##struct": 1241,
      "relative": 1242,
      "provides": 1243,
      "dissolution": 1244,
      "functional": 1245,
      "excellent": 1246,
      "cand": 1247,
      "occ": 1248,
      "pf": 1249,
      "ver": 1250,
      "##og": 1251,
      "still": 1252,
      "cond": 1253,
      "lower": 1254,
      "allow": 1255,
      "focus": 1256,
      "type": 1257,
      "mixt": 1258,
      "candid": 1259,
      "equ": 1260,
      "ser": 1261,
      "##col": 1262,
      "##rous": 1263,
      "##ases": 1264,
      "separ": 1265,
      "volum": 1266,
      "full": 1267,
      "50": 1268,
      "##ature": 1269,
      "real": 1270,
      "dec": 1271,
      "solub": 1272,
      "##ques": 1273,
      "characterized": 1274,
      "experiments": 1275,
      "determined": 1276,
      "second": 1277,
      "ag": 1278,
      "cent": 1279,
      "fil": 1280,
      "ram": 1281,
      "##ey": 1282,
      "##lish": 1283,
      "##raction": 1284,
      "alk": 1285,
      "##ivities": 1286,
      "##ays": 1287,
      "alloy": 1288,
      "next": 1289,
      "correl": 1290,
      "pulsed": 1291,
      "mass": 1292,
      "thus": 1293,
      "##ters": 1294,
      "const": 1295,
      "cyclic": 1296,
      "developed": 1297,
      "about": 1298,
      "deposition": 1299,
      "micro": 1300,
      "dimethyl": 1301,
      "polysulfide": 1302,
      "techniques": 1303,
      "behavior": 1304,
      "kinetics": 1305,
      "raman": 1306,
      "fac": 1307,
      "##lor": 1308,
      "##xim": 1309,
      "react": 1310,
      "ext": 1311,
      "##ivation": 1312,
      "sever": 1313,
      "spectra": 1314,
      "shown": 1315,
      "##ption": 1316,
      "processes": 1317,
      "influ": 1318,
      "finally": 1319,
      "##cos": 1320,
      "##one": 1321,
      "##inder": 1322,
      "##idaz": 1323,
      "conv": 1324,
      "may": 1325,
      "suit": 1326,
      "##ensive": 1327,
      "transition": 1328,
      "phosph": 1329,
      "measured": 1330,
      "nano": 1331,
      "compounds": 1332,
      "great": 1333,
      "issues": 1334,
      "bor": 1335,
      "cations": 1336,
      "lt": 1337,
      "##mon": 1338,
      "##its": 1339,
      "##istic": 1340,
      "ass": 1341,
      "better": 1342,
      "crit": 1343,
      "demonstrate": 1344,
      "viscos": 1345,
      "condition": 1346,
      "lo": 1347,
      "some": 1348,
      "van": 1349,
      "zibs": 1350,
      "##oun": 1351,
      "##ma": 1352,
      "##ement": 1353,
      "interest": 1354,
      "##ross": 1355,
      "neg": 1356,
      "##loy": 1357,
      "composite": 1358,
      "key": 1359,
      "test": 1360,
      "util": 1361,
      "vs": 1362,
      "##mn": 1363,
      "##iation": 1364,
      "##itives": 1365,
      "##orph": 1366,
      "prog": 1367,
      "capability": 1368,
      "mg2": 1369,
      "additives": 1370,
      "##brid": 1371,
      "corros": 1372,
      "strategies": 1373,
      "vanad": 1374,
      "fast": 1375,
      "gl": 1376,
      "line": 1377,
      "mol": 1378,
      "##aled": 1379,
      "##cept": 1380,
      "##ulfonyl": 1381,
      "acet": 1382,
      "##tention": 1383,
      "aluminium": 1384,
      "hybrid": 1385,
      "role": 1386,
      "insert": 1387,
      "limited": 1388,
      "employ": 1389,
      "progress": 1390,
      "25": 1391,
      "##df": 1392,
      "##sc": 1393,
      "##ior": 1394,
      "##ire": 1395,
      "##up": 1396,
      "##ugh": 1397,
      "toward": 1398,
      "attention": 1399,
      "##tages": 1400,
      "##ously": 1401,
      "molecules": 1402,
      "changes": 1403,
      "##entional": 1404,
      "trifluorometh": 1405,
      "mobility": 1406,
      "ratio": 1407,
      "very": 1408,
      "polar": 1409,
      "##de": 1410,
      "##ted": 1411,
      "##ryl": 1412,
      "##aqueous": 1413,
      "##fs": 1414,
      "##ored": 1415,
      "poor": 1416,
      "highl": 1417,
      "exchan": 1418,
      "dissoci": 1419,
      "##izing": 1420,
      "shif": 1421,
      "charging": 1422,
      "increased": 1423,
      "nonaqueous": 1424,
      "upon": 1425,
      "revealed": 1426,
      "##po4": 1427,
      "considered": 1428,
      "viscosity": 1429,
      "do": 1430,
      "wt": 1431,
      "xps": 1432,
      "##pro": 1433,
      "##ual": 1434,
      "##ust": 1435,
      "offer": 1436,
      "like": 1437,
      "interfac": 1438,
      "stri": 1439,
      "four": 1440,
      "amoun": 1441,
      "therefore": 1442,
      "dendrite": 1443,
      "ftir": 1444,
      "much": 1445,
      "conventional": 1446,
      "fund": 1447,
      "pass": 1448,
      "sem": 1449,
      "##ron": 1450,
      "##cu": 1451,
      "##ck": 1452,
      "##come": 1453,
      "##wing": 1454,
      "##ions": 1455,
      "li2": 1456,
      "##abs": 1457,
      "##abil": 1458,
      "associ": 1459,
      "##ethylene": 1460,
      "provid": 1461,
      "spin": 1462,
      "coefficients": 1463,
      "scan": 1464,
      "vanadium": 1465,
      "funda": 1466,
      "dat": 1467,
      "hf": 1468,
      "rich": 1469,
      "ul": 1470,
      "ve": 1471,
      "will": 1472,
      "##ob": 1473,
      "##ves": 1474,
      "##ax": 1475,
      "exp": 1476,
      "##phosph": 1477,
      "liquids": 1478,
      "##afluoro": 1479,
      "##ains": 1480,
      "graphene": 1481,
      "##poly": 1482,
      "##tribution": 1483,
      "components": 1484,
      "coordination": 1485,
      "alternative": 1486,
      "silicon": 1487,
      "negative": 1488,
      "corrosion": 1489,
      "scanning": 1490,
      "data": 1491,
      "dme": 1492,
      "side": 1493,
      "wind": 1494,
      "##now": 1495,
      "##f3": 1496,
      "##cr": 1497,
      "those": 1498,
      "##ice": 1499,
      "co2": 1500,
      "deli": 1501,
      "acc": 1502,
      "structural": 1503,
      "resulting": 1504,
      "advan": 1505,
      "direct": 1506,
      "calculations": 1507,
      "identified": 1508,
      "retention": 1509,
      "small": 1510,
      "confirmed": 1511,
      "suitable": 1512,
      "fundamental": 1513,
      "der": 1514,
      "##ern": 1515,
      "then": 1516,
      "##ify": 1517,
      "temperatures": 1518,
      "effective": 1519,
      "characterization": 1520,
      "presented": 1521,
      "polysulfides": 1522,
      "enhanced": 1523,
      "path": 1524,
      "sing": 1525,
      "##ough": 1526,
      "##por": 1527,
      "##ise": 1528,
      "without": 1529,
      "perspect": 1530,
      "conductivities": 1531,
      "volt": 1532,
      "analyz": 1533,
      "intro": 1534,
      "relax": 1535,
      "theory": 1536,
      "synthesis": 1537,
      "simul": 1538,
      "technologies": 1539,
      "pair": 1540,
      "proble": 1541,
      "subst": 1542,
      "groups": 1543,
      "critical": 1544,
      "glass": 1545,
      "exchange": 1546,
      "sum": 1547,
      "samp": 1548,
      "content": 1549,
      "consis": 1550,
      "##odic": 1551,
      "chlor": 1552,
      "##oss": 1553,
      "densities": 1554,
      "related": 1555,
      "class": 1556,
      "combination": 1557,
      "environment": 1558,
      "requir": 1559,
      "##itrile": 1560,
      "pvdf": 1561,
      "##lished": 1562,
      "summ": 1563,
      "bond": 1564,
      "cross": 1565,
      "owing": 1566,
      "##av": 1567,
      "##xed": 1568,
      "##hic": 1569,
      "##alu": 1570,
      "##reh": 1571,
      "compreh": 1572,
      "where": 1573,
      "##pping": 1574,
      "diffraction": 1575,
      "##ected": 1576,
      "evalu": 1577,
      "##lo4": 1578,
      "ethyl": 1579,
      "recently": 1580,
      "combined": 1581,
      "microscopy": 1582,
      "dmc": 1583,
      "many": 1584,
      "catalyst": 1585,
      "initial": 1586,
      "pfg": 1587,
      "several": 1588,
      "vehic": 1589,
      "window": 1590,
      "single": 1591,
      "voltamm": 1592,
      "bul": 1593,
      "dop": 1594,
      "host": 1595,
      "know": 1596,
      "op": 1597,
      "o2": 1598,
      "##ram": 1599,
      "thf": 1600,
      "##ark": 1601,
      "##arly": 1602,
      "##oph": 1603,
      "among": 1604,
      "level": 1605,
      "influence": 1606,
      "ltd": 1607,
      "stripping": 1608,
      "##polymer": 1609,
      "deriv": 1610,
      "bulk": 1611,
      "15": 1612,
      "br": 1613,
      "fl": 1614,
      "kg": 1615,
      "xr": 1616,
      "##ccess": 1617,
      "they": 1618,
      "##itative": 1619,
      "##aper": 1620,
      "exam": 1621,
      "success": 1622,
      "performed": 1623,
      "##ether": 1624,
      "##version": 1625,
      "effects": 1626,
      "characteristic": 1627,
      "plating": 1628,
      "efficient": 1629,
      "##enef": 1630,
      "methods": 1631,
      "regard": 1632,
      "alkal": 1633,
      "conditions": 1634,
      "insertion": 1635,
      "relaxation": 1636,
      "benef": 1637,
      "cle": 1638,
      "year": 1639,
      "##oul": 1640,
      "##f4": 1641,
      "##ivalent": 1642,
      "##ethoxy": 1643,
      "##oto": 1644,
      "appl": 1645,
      "prev": 1646,
      "investigate": 1647,
      "##ology": 1648,
      "reversibility": 1649,
      "advanc": 1650,
      "dendrites": 1651,
      "##tributed": 1652,
      "##ould": 1653,
      "lat": 1654,
      "mn": 1655,
      "##more": 1656,
      "##ag": 1657,
      "##ah": 1658,
      "##pot": 1659,
      "##ces": 1660,
      "##ick": 1661,
      "##igo": 1662,
      "stabil": 1663,
      "##ute": 1664,
      "highest": 1665,
      "enable": 1666,
      "spectroscop": 1667,
      "result": 1668,
      "electronic": 1669,
      "furthermore": 1670,
      "exhibits": 1671,
      "terms": 1672,
      "center": 1673,
      "##idazol": 1674,
      "ultr": 1675,
      "##crib": 1676,
      "years": 1677,
      "applied": 1678,
      "60": 1679,
      "dot": 1680,
      "min": 1681,
      "##sion": 1682,
      "##uce": 1683,
      "##astic": 1684,
      "libs": 1685,
      "##ably": 1686,
      "atom": 1687,
      "mot": 1688,
      "mechanical": 1689,
      "photo": 1690,
      "even": 1691,
      "propylene": 1692,
      "insights": 1693,
      "alcl4": 1694,
      "fec": 1695,
      "leading": 1696,
      "support": 1697,
      "values": 1698,
      "glycol": 1699,
      "bar": 1700,
      "blen": 1701,
      "##our": 1702,
      "##pond": 1703,
      "##itic": 1704,
      "stand": 1705,
      "conversion": 1706,
      "##iled": 1707,
      "overpot": 1708,
      "times": 1709,
      "sour": 1710,
      "achieved": 1711,
      "indicate": 1712,
      "quantitative": 1713,
      "direction": 1714,
      "possible": 1715,
      "volume": 1716,
      "secondary": 1717,
      "film": 1718,
      "##fsa": 1719,
      "highlight": 1720,
      "voltammetry": 1721,
      "overpotential": 1722,
      "30": 1723,
      "dom": 1724,
      "paper": 1725,
      "##lin": 1726,
      "##ling": 1727,
      "##jor": 1728,
      "##ests": 1729,
      "copolymer": 1730,
      "made": 1731,
      "major": 1732,
      "compat": 1733,
      "prim": 1734,
      "need": 1735,
      "hydrogen": 1736,
      "mainly": 1737,
      "mixtures": 1738,
      "solubility": 1739,
      "dissociation": 1740,
      "characteristics": 1741,
      "11": 1742,
      "av": 1743,
      "##te": 1744,
      "##ral": 1745,
      "##ings": 1746,
      "displ": 1747,
      "electrochemistry": 1748,
      "demand": 1749,
      "corres": 1750,
      "peg": 1751,
      "control": 1752,
      "membranes": 1753,
      "achieve": 1754,
      "operation": 1755,
      "hex": 1756,
      "superior": 1757,
      "##electron": 1758,
      "relatively": 1759,
      "interfacial": 1760,
      "##idazolium": 1761,
      "correspond": 1762,
      "17": 1763,
      "pp": 1764,
      "vin": 1765,
      "##ier": 1766,
      "##ient": 1767,
      "##ailed": 1768,
      "##onitrile": 1769,
      "##ator": 1770,
      "##round": 1771,
      "##ins": 1772,
      "##urs": 1773,
      "def": 1774,
      "##iven": 1775,
      "sust": 1776,
      "transform": 1777,
      "##ained": 1778,
      "part": 1779,
      "numbers": 1780,
      "clus": 1781,
      "change": 1782,
      "technique": 1783,
      "detailed": 1784,
      "crystall": 1785,
      "trifluoromethanes": 1786,
      "amount": 1787,
      "analyzed": 1788,
      "introd": 1789,
      "vehicles": 1790,
      "open": 1791,
      "aff": 1792,
      "dsc": 1793,
      "fab": 1794,
      "ii": 1795,
      "loss": 1796,
      "ol": 1797,
      "##over": 1798,
      "select": 1799,
      "phen": 1800,
      "parame": 1801,
      "##ences": 1802,
      "##lock": 1803,
      "moreover": 1804,
      "challenge": 1805,
      "cycled": 1806,
      "mixed": 1807,
      "estim": 1808,
      "pathw": 1809,
      "chloride": 1810,
      "summar": 1811,
      "photoelectron": 1812,
      "fabric": 1813,
      "dr": 1814,
      "each": 1815,
      "fluoro": 1816,
      "medi": 1817,
      "morph": 1818,
      "ure": 1819,
      "##12": 1820,
      "##rop": 1821,
      "inc": 1822,
      "##quent": 1823,
      "interm": 1824,
      "weight": 1825,
      "uni": 1826,
      "charged": 1827,
      "reduced": 1828,
      "describ": 1829,
      "previ": 1830,
      "effectively": 1831,
      "ils": 1832,
      "environmental": 1833,
      "oxidation": 1834,
      "candidates": 1835,
      "provided": 1836,
      "problems": 1837,
      "successful": 1838,
      "advanced": 1839,
      "sustain": 1840,
      "urea": 1841,
      "fol": 1842,
      "gas": 1843,
      "pub": 1844,
      "##ft": 1845,
      "##inu": 1846,
      "##char": 1847,
      "al3": 1848,
      "##izes": 1849,
      "impact": 1850,
      "performances": 1851,
      "##oxide": 1852,
      "common": 1853,
      "concentrated": 1854,
      "peak": 1855,
      "contact": 1856,
      "reveals": 1857,
      "abundance": 1858,
      "crystal": 1859,
      "associated": 1860,
      "xrd": 1861,
      "31": 1862,
      "abs": 1863,
      "ef": 1864,
      "emer": 1865,
      "fact": 1866,
      "fri": 1867,
      "gu": 1868,
      "gc": 1869,
      "hal": 1870,
      "light": 1871,
      "mp": 1872,
      "mat": 1873,
      "##tf": 1874,
      "##atives": 1875,
      "rep": 1876,
      "##emb": 1877,
      "coup": 1878,
      "within": 1879,
      "area": 1880,
      "comple": 1881,
      "dischar": 1882,
      "##cl2": 1883,
      "##unter": 1884,
      "shut": 1885,
      "conducting": 1886,
      "polymers": 1887,
      "overcome": 1888,
      "safe": 1889,
      "simp": 1890,
      "dissolved": 1891,
      "increases": 1892,
      "fluorinated": 1893,
      "strategy": 1894,
      "decrease": 1895,
      "abundant": 1896,
      "types": 1897,
      "constant": 1898,
      "unique": 1899,
      "friend": 1900,
      "bas": 1901,
      "few": 1902,
      "operat": 1903,
      "sl": 1904,
      "sn": 1905,
      "tun": 1906,
      "tests": 1907,
      "##tfsi": 1908,
      "##go": 1909,
      "##ys": 1910,
      "##ons": 1911,
      "##eng": 1912,
      "intr": 1913,
      "along": 1914,
      "porous": 1915,
      "##ibr": 1916,
      "maxim": 1917,
      "prin": 1918,
      "polymerization": 1919,
      "##ification": 1920,
      "address": 1921,
      "electrical": 1922,
      "improving": 1923,
      "##2o5": 1924,
      "lifepo4": 1925,
      "caus": 1926,
      "suppress": 1927,
      "attracted": 1928,
      "attractive": 1929,
      "emim": 1930,
      "series": 1931,
      "linear": 1932,
      "advantages": 1933,
      "simulations": 1934,
      "oligo": 1935,
      "effor": 1936,
      "shutt": 1937,
      "cir": 1938,
      "hel": 1939,
      "nat": 1940,
      "pan": 1941,
      "ren": 1942,
      "##ove": 1943,
      "##mbs": 1944,
      "##h4": 1945,
      "##organic": 1946,
      "inorganic": 1947,
      "rele": 1948,
      "step": 1949,
      "contr": 1950,
      "alth": 1951,
      "##ately": 1952,
      "resist": 1953,
      "##ension": 1954,
      "plate": 1955,
      "continu": 1956,
      "liclo4": 1957,
      "corresponding": 1958,
      "repres": 1959,
      "although": 1960,
      "12": 1961,
      "aut": 1962,
      "around": 1963,
      "far": 1964,
      "hinder": 1965,
      "sci": 1966,
      "yield": 1967,
      "##o4": 1968,
      "##ex": 1969,
      "anodic": 1970,
      "##alumin": 1971,
      "##ilit": 1972,
      "electrochemically": 1973,
      "developing": 1974,
      "sulfon": 1975,
      "plastic": 1976,
      "advances": 1977,
      "enhance": 1978,
      "fully": 1979,
      "lini": 1980,
      "trifluoromethyl": 1981,
      "monit": 1982,
      "facilit": 1983,
      "passivation": 1984,
      "##phosphate": 1985,
      "primary": 1986,
      "hexafluoro": 1987,
      "trifluoromethanesulfonyl": 1988,
      "operating": 1989,
      "princi": 1990,
      "500": 1991,
      "80": 1992,
      "best": 1993,
      "col": 1994,
      "dic": 1995,
      "less": 1996,
      "mabs": 1997,
      "rap": 1998,
      "rad": 1999,
      "##ses": 2000,
      "##com": 2001,
      "inst": 2002,
      "deep": 2003,
      "attributed": 2004,
      "##acryl": 2005,
      "capacities": 2006,
      "oxides": 2007,
      "phys": 2008,
      "above": 2009,
      "close": 2010,
      "leads": 2011,
      "mono": 2012,
      "estab": 2013,
      "allows": 2014,
      "candidate": 2015,
      "borate": 2016,
      "local": 2017,
      "comprehensive": 2018,
      "evaluated": 2019,
      "lattic": 2020,
      "standard": 2021,
      "directions": 2022,
      "follow": 2023,
      "rapid": 2024,
      "bre": 2025,
      "cu": 2026,
      "g4": 2027,
      "lack": 2028,
      "pure": 2029,
      "sat": 2030,
      "##eg": 2031,
      "##bal": 2032,
      "##fact": 2033,
      "##inary": 2034,
      "##arbon": 2035,
      "reach": 2036,
      "counter": 2037,
      "prof": 2038,
      "end": 2039,
      "mac": 2040,
      "##amide": 2041,
      "##formation": 2042,
      "##ensively": 2043,
      "conduction": 2044,
      "degree": 2045,
      "potentials": 2046,
      "activity": 2047,
      "##rier": 2048,
      "infr": 2049,
      "component": 2050,
      "assemb": 2051,
      "deliver": 2052,
      "published": 2053,
      "##ength": 2054,
      "radical": 2055,
      "lattice": 2056,
      "3d": 2057,
      "35": 2058,
      "70": 2059,
      "99": 2060,
      "aim": 2061,
      "agg": 2062,
      "binder": 2063,
      "eis": 2064,
      "lew": 2065,
      "molar": 2066,
      "ra": 2067,
      "sin": 2068,
      "size": 2069,
      "them": 2070,
      "##orpor": 2071,
      "##idine": 2072,
      "al2": 2073,
      "poin": 2074,
      "exis": 2075,
      "dist": 2076,
      "distribution": 2077,
      "nmc": 2078,
      "##omen": 2079,
      "orr": 2080,
      "metallic": 2081,
      "evid": 2082,
      "##pected": 2083,
      "signal": 2084,
      "##rix": 2085,
      "thermod": 2086,
      "approxim": 2087,
      "indicated": 2088,
      "ess": 2089,
      "possess": 2090,
      "coefficient": 2091,
      "require": 2092,
      "libob": 2093,
      "particularly": 2094,
      "findings": 2095,
      "microstruct": 2096,
      "alkaline": 2097,
      "blend": 2098,
      "phenomen": 2099,
      "morphology": 2100,
      "incorpor": 2101,
      "matrix": 2102,
      "efforts": 2103,
      "break": 2104,
      "lewis": 2105,
      "ap": 2106,
      "ce": 2107,
      "mas": 2108,
      "nature": 2109,
      "rates": 2110,
      "##mm": 2111,
      "##con": 2112,
      "##king": 2113,
      "##ining": 2114,
      "##ants": 2115,
      "##reg": 2116,
      "chemistr": 2117,
      "##ially": 2118,
      "##imetry": 2119,
      "##ibly": 2120,
      "suff": 2121,
      "short": 2122,
      "carr": 2123,
      "diox": 2124,
      "investigation": 2125,
      "promot": 2126,
      "nucleoph": 2127,
      "working": 2128,
      "prepar": 2129,
      "achieving": 2130,
      "group": 2131,
      "comparis": 2132,
      "dependent": 2133,
      "utilization": 2134,
      "polarization": 2135,
      "shift": 2136,
      "perspectives": 2137,
      "substit": 2138,
      "catalysts": 2139,
      "parameters": 2140,
      "intermedi": 2141,
      "maximum": 2142,
      "platea": 2143,
      "infrared": 2144,
      "chemistries": 2145,
      "block": 2146,
      "dil": 2147,
      "dft": 2148,
      "fail": 2149,
      "g2": 2150,
      "tg": 2151,
      "##ogen": 2152,
      "##ily": 2153,
      "##pre": 2154,
      "##hy": 2155,
      "##fb": 2156,
      "##orption": 2157,
      "inhibit": 2158,
      "##lyme": 2159,
      "##arg": 2160,
      "##olv": 2161,
      "##olane": 2162,
      "repl": 2163,
      "##ulation": 2164,
      "chlo": 2165,
      "##imetric": 2166,
      "subs": 2167,
      "weak": 2168,
      "##ade": 2169,
      "should": 2170,
      "press": 2171,
      "orig": 2172,
      "conductive": 2173,
      "relations": 2174,
      "differential": 2175,
      "depos": 2176,
      "config": 2177,
      "fluoride": 2178,
      "elements": 2179,
      "mixture": 2180,
      "employed": 2181,
      "fourier": 2182,
      "samples": 2183,
      "known": 2184,
      "derived": 2185,
      "examined": 2186,
      "simple": 2187,
      "circu": 2188,
      "represent": 2189,
      "##aluminate": 2190,
      "led": 2191,
      "sig": 2192,
      "slow": 2193,
      "way": 2194,
      "##oh": 2195,
      "##oc": 2196,
      "##equent": 2197,
      "##ness": 2198,
      "##iated": 2199,
      "##aging": 2200,
      "##ually": 2201,
      "##f2": 2202,
      "##inium": 2203,
      "##inant": 2204,
      "##old": 2205,
      "##ilities": 2206,
      "prospect": 2207,
      "chain": 2208,
      "ent": 2209,
      "enab": 2210,
      "composed": 2211,
      "##ethane": 2212,
      "grid": 2213,
      "##ucial": 2214,
      "##ainst": 2215,
      "analyses": 2216,
      "ability": 2217,
      "activation": 2218,
      "crucial": 2219,
      "##uble": 2220,
      "dimethoxy": 2221,
      "dimension": 2222,
      "soci": 2223,
      "occurr": 2224,
      "equil": 2225,
      "against": 2226,
      "shifts": 2227,
      "prevent": 2228,
      "spectroscopic": 2229,
      "successfully": 2230,
      "coupled": 2231,
      "carried": 2232,
      "nucleophilic": 2233,
      "subsequent": 2234,
      "sigma": 2235,
      "bel": 2236,
      "eas": 2237,
      "eut": 2238,
      "fram": 2239,
      "gp": 2240,
      "net": 2241,
      "pf6": 2242,
      "same": 2243,
      "tak": 2244,
      "yet": 2245,
      "##ler": 2246,
      "##ti": 2247,
      "##cataly": 2248,
      "##ked": 2249,
      "##work": 2250,
      "##atically": 2251,
      "##oring": 2252,
      "##ingly": 2253,
      "electrocataly": 2254,
      "##idinium": 2255,
      "ste": 2256,
      "stage": 2257,
      "prod": 2258,
      "pot": 2259,
      "post": 2260,
      "##ather": 2261,
      "organ": 2262,
      "##ectic": 2263,
      "##ando": 2264,
      "acryl": 2265,
      "added": 2266,
      "##cover": 2267,
      "phases": 2268,
      "invol": 2269,
      "complexes": 2270,
      "layered": 2271,
      "maintain": 2272,
      "detail": 2273,
      "device": 2274,
      "art": 2275,
      "operando": 2276,
      "remains": 2277,
      "commercialization": 2278,
      "value": 2279,
      "tested": 2280,
      "employing": 2281,
      "required": 2282,
      "clearly": 2283,
      "compatibility": 2284,
      "avail": 2285,
      "clusters": 2286,
      "affect": 2287,
      "estimated": 2288,
      "half": 2289,
      "intrins": 2290,
      "help": 2291,
      "contrast": 2292,
      "aggreg": 2293,
      "since": 2294,
      "appe": 2295,
      "comparison": 2296,
      "configur": 2297,
      "circuit": 2298,
      "society": 2299,
      "eutectic": 2300,
      "23": 2301,
      "bu": 2302,
      "mit": 2303,
      "ni": 2304,
      "pi": 2305,
      "port": 2306,
      "pyr": 2307,
      "sens": 2308,
      "vc": 2309,
      "##yan": 2310,
      "##pite": 2311,
      "##cm": 2312,
      "##3v": 2313,
      "thick": 2314,
      "##ises": 2315,
      "##lyte": 2316,
      "conc": 2317,
      "contribut": 2318,
      "cho": 2319,
      "being": 2320,
      "compr": 2321,
      "##rometry": 2322,
      "predi": 2323,
      "##ework": 2324,
      "despite": 2325,
      "prefer": 2326,
      "never": 2327,
      "overview": 2328,
      "##ples": 2329,
      "amb": 2330,
      "propose": 2331,
      "consum": 2332,
      "calor": 2333,
      "particles": 2334,
      "determine": 2335,
      "explored": 2336,
      "multip": 2337,
      "focused": 2338,
      "separator": 2339,
      "volumetric": 2340,
      "soluble": 2341,
      "vinyl": 2342,
      "natural": 2343,
      "auth": 2344,
      "trifluoromethylsulf": 2345,
      "collect": 2346,
      "essential": 2347,
      "chloro": 2348,
      "framework": 2349,
      "network": 2350,
      "mitig": 2351,
      "bro": 2352,
      "ben": 2353,
      "et": 2354,
      "mri": 2355,
      "pb": 2356,
      "pur": 2357,
      "pore": 2358,
      "rather": 2359,
      "so2": 2360,
      "tre": 2361,
      "vers": 2362,
      "##oo2": 2363,
      "##mo": 2364,
      "##ten": 2365,
      "##pyr": 2366,
      "ang": 2367,
      "inh": 2368,
      "##ised": 2369,
      "contribution": 2370,
      "del": 2371,
      "##pecial": 2372,
      "##imidazolium": 2373,
      "resp": 2374,
      "extr": 2375,
      "trad": 2376,
      "symm": 2377,
      "mgcl2": 2378,
      "spectrometry": 2379,
      "near": 2380,
      "diffusivity": 2381,
      "##assium": 2382,
      "overall": 2383,
      "intens": 2384,
      "ammon": 2385,
      "cm−": 2386,
      "designing": 2387,
      "obser": 2388,
      "nanop": 2389,
      "remark": 2390,
      "especial": 2391,
      "strongly": 2392,
      "licoo2": 2393,
      "ratios": 2394,
      "initi": 2395,
      "##olecul": 2396,
      "occurs": 2397,
      "whereas": 2398,
      "summarized": 2399,
      "potassium": 2400,
      "portable": 2401,
      "multiple": 2402,
      "tradition": 2403,
      "ammonium": 2404,
      "especially": 2405,
      "16": 2406,
      "18": 2407,
      "aging": 2408,
      "apro": 2409,
      "binary": 2410,
      "cer": 2411,
      "eo": 2412,
      "fav": 2413,
      "name": 2414,
      "rational": 2415,
      "##dr": 2416,
      "##van": 2417,
      "##most": 2418,
      "##by": 2419,
      "##bust": 2420,
      "##ping": 2421,
      "##cid": 2422,
      "##onic": 2423,
      "##iting": 2424,
      "anal": 2425,
      "information": 2426,
      "##reme": 2427,
      "##reement": 2428,
      "refer": 2429,
      "lix": 2430,
      "##ime": 2431,
      "lithiation": 2432,
      "expected": 2433,
      "polyethylene": 2434,
      "tri": 2435,
      "##mers": 2436,
      "##ticle": 2437,
      "systematic": 2438,
      "molecu": 2439,
      "designed": 2440,
      "simult": 2441,
      "layers": 2442,
      "discuss": 2443,
      "hydrox": 2444,
      "1000": 2445,
      "remain": 2446,
      "protect": 2447,
      "extreme": 2448,
      "towards": 2449,
      "delivers": 2450,
      "perspective": 2451,
      "pairs": 2452,
      "doping": 2453,
      "sources": 2454,
      "crystalline": 2455,
      "pathways": 2456,
      "sustainable": 2457,
      "factors": 2458,
      "failure": 2459,
      "ambient": 2460,
      "calorimetry": 2461,
      "aprotic": 2462,
      "namely": 2463,
      "analog": 2464,
      "molecule": 2465,
      "simultane": 2466,
      "29": 2467,
      "40": 2468,
      "90": 2469,
      "bf4": 2470,
      "bh4": 2471,
      "fsi": 2472,
      "lig": 2473,
      "tern": 2474,
      "v2o5": 2475,
      "##ely": 2476,
      "##bor": 2477,
      "##raph": 2478,
      "##pr": 2479,
      "##uch": 2480,
      "##ines": 2481,
      "##ory": 2482,
      "##lying": 2483,
      "##ission": 2484,
      "##ither": 2485,
      "##gel": 2486,
      "##ifunction": 2487,
      "##eless": 2488,
      "che": 2489,
      "##verage": 2490,
      "lithiated": 2491,
      "examp": 2492,
      "compet": 2493,
      "disper": 2494,
      "##ady": 2495,
      "##ading": 2496,
      "means": 2497,
      "ads": 2498,
      "##ewable": 2499,
      "forming": 2500,
      "showing": 2501,
      "necess": 2502,
      "able": 2503,
      "potentially": 2504,
      "robust": 2505,
      "demonstrates": 2506,
      "sites": 2507,
      "##2o4": 2508,
      "acidic": 2509,
      "improvement": 2510,
      "heter": 2511,
      "agreement": 2512,
      "alloys": 2513,
      "boron": 2514,
      "substant": 2515,
      "sample": 2516,
      "doped": 2517,
      "flamm": 2518,
      "minim": 2519,
      "##liness": 2520,
      "emerging": 2521,
      "friendliness": 2522,
      "principles": 2523,
      "relationsh": 2524,
      "dimethoxyethane": 2525,
      "dimensional": 2526,
      "equilibr": 2527,
      "choice": 2528,
      "##olecular": 2529,
      "ternary": 2530,
      "##ifunctional": 2531,
      "1h": 2532,
      "300": 2533,
      "bi": 2534,
      "ed": 2535,
      "ear": 2536,
      "larg": 2537,
      "oh": 2538,
      "past": 2539,
      "radi": 2540,
      "##valent": 2541,
      "##yond": 2542,
      "##cn": 2543,
      "##ced": 2544,
      "##erature": 2545,
      "##eds": 2546,
      "any": 2547,
      "##art": 2548,
      "##idth": 2549,
      "conse": 2550,
      "concept": 2551,
      "almost": 2552,
      "po4": 2553,
      "pouch": 2554,
      "##imide": 2555,
      "beyond": 2556,
      "comput": 2557,
      "shell": 2558,
      "carb": 2559,
      "polymeric": 2560,
      "acco": 2561,
      "##uces": 2562,
      "developments": 2563,
      "beta": 2564,
      "sulfide": 2565,
      "diethyl": 2566,
      "integ": 2567,
      "promise": 2568,
      "##luoros": 2569,
      "contains": 2570,
      "litfsa": 2571,
      "literature": 2572,
      "combining": 2573,
      "intercalated": 2574,
      "multi": 2575,
      "multivalent": 2576,
      "compositions": 2577,
      "article": 2578,
      "importantly": 2579,
      "calculated": 2580,
      "proton": 2581,
      "catalytic": 2582,
      "alternatives": 2583,
      "suggested": 2584,
      "dependence": 2585,
      "libf4": 2586,
      "##rolidinium": 2587,
      "typical": 2588,
      "directly": 2589,
      "source": 2590,
      "previously": 2591,
      "complete": 2592,
      "discharged": 2593,
      "caused": 2594,
      "shuttle": 2595,
      "renewable": 2596,
      "hexafluorophosphate": 2597,
      "##acrylate": 2598,
      "existing": 2599,
      "thermodynamic": 2600,
      "approximate": 2601,
      "suffer": 2602,
      "available": 2603,
      "intrinsic": 2604,
      "trifluoromethylsulfonyl": 2605,
      "chloroaluminate": 2606,
      "broad": 2607,
      "extremely": 2608,
      "accoun": 2609,
      "integr": 2610,
      "brom": 2611,
      "cs": 2612,
      "dual": 2613,
      "fre": 2614,
      "gpe": 2615,
      "hand": 2616,
      "last": 2617,
      "now": 2618,
      "opp": 2619,
      "vary": 2620,
      "##o3": 2621,
      "##mds": 2622,
      "##ner": 2623,
      "##tal": 2624,
      "##ages": 2625,
      "##upl": 2626,
      "##inone": 2627,
      "##orm": 2628,
      "##arch": 2629,
      "##asing": 2630,
      "##ched": 2631,
      "rec": 2632,
      "construct": 2633,
      "##ilox": 2634,
      "##theless": 2635,
      "become": 2636,
      "eng": 2637,
      "resour": 2638,
      "trend": 2639,
      "energies": 2640,
      "##000": 2641,
      "##ticles": 2642,
      "##ended": 2643,
      "prec": 2644,
      "dielect": 2645,
      "reli": 2646,
      "##encies": 2647,
      "reversibly": 2648,
      "thermog": 2649,
      "additionally": 2650,
      "cationic": 2651,
      "reviewed": 2652,
      "indicates": 2653,
      "indicating": 2654,
      "##ostatic": 2655,
      "##fficient": 2656,
      "quantify": 2657,
      "growing": 2658,
      "behaviour": 2659,
      "superoxide": 2660,
      "modeling": 2661,
      "emc": 2662,
      "elev": 2663,
      "films": 2664,
      "correlation": 2665,
      "li2s": 2666,
      "display": 2667,
      "fabricated": 2668,
      "relev": 2669,
      "established": 2670,
      "followed": 2671,
      "point": 2672,
      "distin": 2673,
      "pressure": 2674,
      "origin": 2675,
      "nevertheless": 2676,
      "nanopar": 2677,
      "traditional": 2678,
      "dielectric": 2679,
      "thermogra": 2680,
      "14": 2681,
      "back": 2682,
      "fr": 2683,
      "gal": 2684,
      "hard": 2685,
      "hmds": 2686,
      "md": 2687,
      "mes": 2688,
      "tf": 2689,
      "would": 2690,
      "##o12": 2691,
      "##nal": 2692,
      "##cap": 2693,
      "##ators": 2694,
      "##ited": 2695,
      "states": 2696,
      "##ulated": 2697,
      "##celer": 2698,
      "al−": 2699,
      "chrom": 2700,
      "aspect": 2701,
      "exist": 2702,
      "##ivid": 2703,
      "meet": 2704,
      "conducted": 2705,
      "units": 2706,
      "acceler": 2707,
      "systematically": 2708,
      "electrodep": 2709,
      "##co3": 2710,
      "voltages": 2711,
      "neut": 2712,
      "technical": 2713,
      "investigations": 2714,
      "##enced": 2715,
      "##ledge": 2716,
      "depth": 2717,
      "chemically": 2718,
      "exhibited": 2719,
      "feas": 2720,
      "explain": 2721,
      "considerable": 2722,
      "experimentally": 2723,
      "mangan": 2724,
      "must": 2725,
      "widely": 2726,
      "oxidative": 2727,
      "reactivity": 2728,
      "greatly": 2729,
      "acetate": 2730,
      "double": 2731,
      "li2co3": 2732,
      "advantage": 2733,
      "consisting": 2734,
      "requires": 2735,
      "crosslin": 2736,
      "knowledge": 2737,
      "supported": 2738,
      "resistance": 2739,
      "lini0": 2740,
      "##arbonate": 2741,
      "assembled": 2742,
      "microstructure": 2743,
      "substitution": 2744,
      "tga": 2745,
      "configuration": 2746,
      "predict": 2747,
      "versus": 2748,
      "inher": 2749,
      "simultaneously": 2750,
      "##raphy": 2751,
      "necessary": 2752,
      "equilibrium": 2753,
      "earth": 2754,
      "computational": 2755,
      "##luorosulfonyl": 2756,
      "##upling": 2757,
      "thermograv": 2758,
      "galvan": 2759,
      "000": 2760,
      "average": 2761,
      "cv": 2762,
      "case": 2763,
      "date": 2764,
      "dra": 2765,
      "either": 2766,
      "fas": 2767,
      "fraction": 2768,
      "fluorosulfonyl": 2769,
      "given": 2770,
      "h2o": 2771,
      "if": 2772,
      "ic": 2773,
      "py": 2774,
      "tfsa": 2775,
      "##ov": 2776,
      "##ood": 2777,
      "##ocol": 2778,
      "##ven": 2779,
      "##nel": 2780,
      "##5o12": 2781,
      "##aw": 2782,
      "##he": 2783,
      "##fe": 2784,
      "##10": 2785,
      "##wh": 2786,
      "##ering": 2787,
      "##atog": 2788,
      "##ital": 2789,
      "##oration": 2790,
      "##orable": 2791,
      "##isfact": 2792,
      "total": 2793,
      "li4": 2794,
      "lifsi": 2795,
      "##active": 2796,
      "##imethyl": 2797,
      "before": 2798,
      "resolved": 2799,
      "discover": 2800,
      "strength": 2801,
      "##ortun": 2802,
      "##ometry": 2803,
      "cyclability": 2804,
      "##oty": 2805,
      "lowest": 2806,
      "##igned": 2807,
      "##co0": 2808,
      "undergo": 2809,
      "presents": 2810,
      "surfac": 2811,
      "induced": 2812,
      "imidazolium": 2813,
      "general": 2814,
      "generated": 2815,
      "viable": 2816,
      "dissol": 2817,
      "explore": 2818,
      "ide": 2819,
      "detected": 2820,
      "protocol": 2821,
      "identify": 2822,
      "decreased": 2823,
      "probe": 2824,
      "approaches": 2825,
      "issue": 2826,
      "optimal": 2827,
      "optimization": 2828,
      "correlations": 2829,
      "facile": 2830,
      "##idazole": 2831,
      "does": 2832,
      "offers": 2833,
      "providing": 2834,
      "comprehensively": 2835,
      "kg−1": 2836,
      "regarded": 2837,
      "alkali": 2838,
      "barrier": 2839,
      "introduced": 2840,
      "previous": 2841,
      "guid": 2842,
      "physical": 2843,
      "occurring": 2844,
      "##ti5o12": 2845,
      "relationship": 2846,
      "larger": 2847,
      "opportun": 2848,
      "##iloxane": 2849,
      "engine": 2850,
      "elevated": 2851,
      "distinct": 2852,
      "nanoparticles": 2853,
      "chromatog": 2854,
      "##isfactory": 2855,
      "surfaces": 2856,
      "chromatography": 2857,
      "05": 2858,
      "21": 2859,
      "cd": 2860,
      "cp": 2861,
      "cf3": 2862,
      "dol": 2863,
      "fu": 2864,
      "hom": 2865,
      "med": 2866,
      "mel": 2867,
      "##ok": 2868,
      "##di": 2869,
      "##mission": 2870,
      "##ious": 2871,
      "##gether": 2872,
      "##red": 2873,
      "##agn": 2874,
      "##pri": 2875,
      "##22": 2876,
      "##ered": 2877,
      "thin": 2878,
      "##onate": 2879,
      "##inter": 2880,
      "##enyl": 2881,
      "##ores": 2882,
      "##isation": 2883,
      "##cho": 2884,
      "together": 2885,
      "reas": 2886,
      "cos": 2887,
      "##stac": 2888,
      "##iform": 2889,
      "make": 2890,
      "mean": 2891,
      "adop": 2892,
      "##tri": 2893,
      "solvating": 2894,
      "cathodic": 2895,
      "having": 2896,
      "##roscopic": 2897,
      "adding": 2898,
      "speciation": 2899,
      "##verse": 2900,
      "reduce": 2901,
      "differences": 2902,
      "analyt": 2903,
      "deme": 2904,
      "amorph": 2905,
      "play": 2906,
      "quas": 2907,
      "propyl": 2908,
      "##compos": 2909,
      "imaging": 2910,
      "obstac": 2911,
      "affor": 2912,
      "methylimidazolium": 2913,
      "importance": 2914,
      "enhancement": 2915,
      "powder": 2916,
      "prototy": 2917,
      "suggesting": 2918,
      "glyme": 2919,
      "optimized": 2920,
      "##mn0": 2921,
      "##ceptor": 2922,
      "amounts": 2923,
      "accum": 2924,
      "accur": 2925,
      "accord": 2926,
      "regarding": 2927,
      "benefits": 2928,
      "mno2": 2929,
      "atoms": 2930,
      "alcl4−": 2931,
      "highlighted": 2932,
      "compatible": 2933,
      "iii": 2934,
      "pathway": 2935,
      "described": 2936,
      "##onsible": 2937,
      "scient": 2938,
      "facilitate": 2939,
      "macro": 2940,
      "phenomena": 2941,
      "plateaus": 2942,
      "##ogene": 2943,
      "replac": 2944,
      "appear": 2945,
      "concern": 2946,
      "responsible": 2947,
      "extraction": 2948,
      "cm−2": 2949,
      "reference": 2950,
      "ligand": 2951,
      "example": 2952,
      "relevant": 2953,
      "al−s": 2954,
      "aspects": 2955,
      "inherent": 2956,
      "li4ti5o12": 2957,
      "fuel": 2958,
      "##priate": 2959,
      "##intercal": 2960,
      "amorphous": 2961,
      "27": 2962,
      "85": 2963,
      "ah": 2964,
      "elu": 2965,
      "echo": 2966,
      "five": 2967,
      "mibs": 2968,
      "nibs": 2969,
      "pg": 2970,
      "ring": 2971,
      "rot": 2972,
      "rabs": 2973,
      "sibs": 2974,
      "tm": 2975,
      "##ead": 2976,
      "##ext": 2977,
      "##mr": 2978,
      "##gic": 2979,
      "##gical": 2980,
      "##gges": 2981,
      "##cf3": 2982,
      "##30": 2983,
      "##icial": 2984,
      "often": 2985,
      "##ented": 2986,
      "##revers": 2987,
      "electroph": 2988,
      "##asitic": 2989,
      "##iles": 2990,
      "##own": 2991,
      "##quency": 2992,
      "sugges": 2993,
      "trig": 2994,
      "shar": 2995,
      "##ometric": 2996,
      "mgs": 2997,
      "metals": 2998,
      "transmission": 2999,
      "carbonates": 3000,
      "appar": 3001,
      "access": 3002,
      "##ucing": 3003,
      "desir": 3004,
      "desolv": 3005,
      "preci": 3006,
      "property": 3007,
      "anionic": 3008,
      "parasitic": 3009,
      "##uclear": 3010,
      "##se2": 3011,
      "individ": 3012,
      "##riers": 3013,
      "understood": 3014,
      "demonstrating": 3015,
      "butyl": 3016,
      "zn2": 3017,
      "modified": 3018,
      "modification": 3019,
      "variety": 3020,
      "context": 3021,
      "thereby": 3022,
      "spes": 3023,
      "##2o3": 3024,
      "appropriate": 3025,
      "limitations": 3026,
      "detect": 3027,
      "fluorine": 3028,
      "2015": 3029,
      "linked": 3030,
      "mobilities": 3031,
      "decreases": 3032,
      "irrevers": 3033,
      "##electro": 3034,
      "typically": 3035,
      "elemental": 3036,
      "correlated": 3037,
      "constit": 3038,
      "phosphate": 3039,
      "##mn1": 3040,
      "##prop": 3041,
      "likely": 3042,
      "interfaces": 3043,
      "consistent": 3044,
      "beneficial": 3045,
      "spectroscopies": 3046,
      "motion": 3047,
      "ppm": 3048,
      "commonly": 3049,
      "discharging": 3050,
      "basis": 3051,
      "continuous": 3052,
      "hindered": 3053,
      "evidence": 3054,
      "requirements": 3055,
      "promote": 3056,
      "dilute": 3057,
      "prospects": 3058,
      "enables": 3059,
      "electrocatalyst": 3060,
      "buil": 3061,
      "consumption": 3062,
      "symmetric": 3063,
      "varying": 3064,
      "electrodeposition": 3065,
      "neutral": 3066,
      "manganese": 3067,
      "galvanostatic": 3068,
      "faster": 3069,
      "analytical": 3070,
      "scientific": 3071,
      "elucid": 3072,
      "suggests": 3073,
      "24": 3074,
      "37": 3075,
      "95": 3076,
      "bm": 3077,
      "fc": 3078,
      "fib": 3079,
      "ga": 3080,
      "hop": 3081,
      "hence": 3082,
      "mig": 3083,
      "mark": 3084,
      "nc": 3085,
      "nick": 3086,
      "ted": 3087,
      "##dme": 3088,
      "##ba": 3089,
      "##pit": 3090,
      "##has": 3091,
      "##ug": 3092,
      "##20": 3093,
      "##onom": 3094,
      "##itud": 3095,
      "##let": 3096,
      "##edom": 3097,
      "##icult": 3098,
      "##orus": 3099,
      "inn": 3100,
      "##lyl": 3101,
      "##lysis": 3102,
      "##ationary": 3103,
      "##oles": 3104,
      "repor": 3105,
      "static": 3106,
      "stationary": 3107,
      "electrolytic": 3108,
      "coin": 3109,
      "coupling": 3110,
      "##stand": 3111,
      "deintercal": 3112,
      "##ifies": 3113,
      "##quinone": 3114,
      "##clus": 3115,
      "##izations": 3116,
      "trimethyl": 3117,
      "difficult": 3118,
      "solvated": 3119,
      "uns": 3120,
      "uniform": 3121,
      "transl": 3122,
      "grav": 3123,
      "forms": 3124,
      "formul": 3125,
      "##portion": 3126,
      "sulfonyl": 3127,
      "mechanically": 3128,
      "graphitic": 3129,
      "nucleation": 3130,
      "amide": 3131,
      "syner": 3132,
      "currently": 3133,
      "efficiencies": 3134,
      "synthetic": 3135,
      "lifet": 3136,
      "additional": 3137,
      "dimer": 3138,
      "econom": 3139,
      "view": 3140,
      "quantum": 3141,
      "dmso": 3142,
      "flexibility": 3143,
      "coordin": 3144,
      "coordinated": 3145,
      "decreasing": 3146,
      "depends": 3147,
      "silica": 3148,
      "emphas": 3149,
      "composites": 3150,
      "tetrafluoro": 3151,
      "tetrag": 3152,
      "tetrah": 3153,
      "realizing": 3154,
      "decay": 3155,
      "constants": 3156,
      "nanostruct": 3157,
      "nanocompos": 3158,
      "lto": 3159,
      "##mn2o4": 3160,
      "acetonitrile": 3161,
      "trifluoromethane": 3162,
      "highlights": 3163,
      "hfp": 3164,
      "derivatives": 3165,
      "electronics": 3166,
      "displays": 3167,
      "defect": 3168,
      "cluster": 3169,
      "media": 3170,
      "##ropy": 3171,
      "absence": 3172,
      "science": 3173,
      "plasticiz": 3174,
      "monitored": 3175,
      "physic": 3176,
      "al2cl": 3177,
      "incorporation": 3178,
      "intermediate": 3179,
      "##hydr": 3180,
      "belie": 3181,
      "gpes": 3182,
      "aggregation": 3183,
      "##3v2": 3184,
      "contribute": 3185,
      "author": 3186,
      "etc": 3187,
      "account": 3188,
      "engineering": 3189,
      "medium": 3190,
      "quasi": 3191,
      "afford": 3192,
      "##ogeneous": 3193,
      "migr": 3194,
      "nickel": 3195,
      "teda": 3196,
      "reports": 3197,
      "gravimetric": 3198,
      "2d": 3199,
      "55": 3200,
      "75": 3201,
      "bes": 3202,
      "cast": 3203,
      "d2o": 3204,
      "ever": 3205,
      "early": 3206,
      "fi": 3207,
      "had": 3208,
      "latter": 3209,
      "lab": 3210,
      "length": 3211,
      "oer": 3212,
      "ti": 3213,
      "titr": 3214,
      "uv": 3215,
      "vo": 3216,
      "vert": 3217,
      "##oo": 3218,
      "##och": 3219,
      "##oich": 3220,
      "##olyte": 3221,
      "##mc": 3222,
      "##ns": 3223,
      "##to": 3224,
      "##ycl": 3225,
      "##pts": 3226,
      "##uter": 3227,
      "##ustr": 3228,
      "##erate": 3229,
      "though": 3230,
      "##esis": 3231,
      "##lement": 3232,
      "##oretic": 3233,
      "##etal": 3234,
      "ref": 3235,
      "repe": 3236,
      "receptor": 3237,
      "cover": 3238,
      "coating": 3239,
      "cobal": 3240,
      "##ulose": 3241,
      "conj": 3242,
      "conclud": 3243,
      "alph": 3244,
      "##utes": 3245,
      "##ivated": 3246,
      "trap": 3247,
      "interact": 3248,
      "##amic": 3249,
      "##amine": 3250,
      "##duction": 3251,
      "prist": 3252,
      "predom": 3253,
      "grad": 3254,
      "##oxyl": 3255,
      "sulfone": 3256,
      "methoxy": 3257,
      "relation": 3258,
      "na3v2": 3259,
      "characterize": 3260,
      "characterizations": 3261,
      "numer": 3262,
      "researchers": 3263,
      "inside": 3264,
      "combine": 3265,
      "##porous": 3266,
      "methodology": 3267,
      "space": 3268,
      "exploration": 3269,
      "enhancing": 3270,
      "arr": 3271,
      "ca2": 3272,
      "cause": 3273,
      "mobile": 3274,
      "greater": 3275,
      "comparing": 3276,
      "pva": 3277,
      "tetra": 3278,
      "allowing": 3279,
      "reactive": 3280,
      "extended": 3281,
      "li2o2": 3282,
      "problem": 3283,
      "glasses": 3284,
      "enabled": 3285,
      "ultra": 3286,
      "overpotentials": 3287,
      "dominated": 3288,
      "dominant": 3289,
      "demands": 3290,
      "controlled": 3291,
      "fluoroethylene": 3292,
      "absorption": 3293,
      "friendly": 3294,
      "tuning": 3295,
      "yields": 3296,
      "plasticized": 3297,
      "dicyan": 3298,
      "dicarbonate": 3299,
      "instability": 3300,
      "satur": 3301,
      "signals": 3302,
      "phenomenon": 3303,
      "cei": 3304,
      "dioxolane": 3305,
      "preparation": 3306,
      "intermediates": 3307,
      "entropy": 3308,
      "easily": 3309,
      "involving": 3310,
      "benz": 3311,
      "so2cf3": 3312,
      "treat": 3313,
      "remarkable": 3314,
      "initio": 3315,
      "ceramic": 3316,
      "favorable": 3317,
      "##borate": 3318,
      "frequency": 3319,
      "backbon": 3320,
      "existence": 3321,
      "draw": 3322,
      "reason": 3323,
      "electrophoretic": 3324,
      "apparent": 3325,
      "desolvation": 3326,
      "precipit": 3327,
      "##itude": 3328,
      "##oichi": 3329,
      "cobalt": 3330,
      "pristine": 3331,
      "predominant": 3332,
      "2o2": 3333,
      "400": 3334,
      "bifunctional": 3335,
      "cre": 3336,
      "dg": 3337,
      "dess": 3338,
      "divalent": 3339,
      "epr": 3340,
      "fer": 3341,
      "fading": 3342,
      "glo": 3343,
      "hol": 3344,
      "nap": 3345,
      "naf": 3346,
      "nitr": 3347,
      "pm": 3348,
      "pam": 3349,
      "sw": 3350,
      "scal": 3351,
      "tur": 3352,
      "tend": 3353,
      "##ope": 3354,
      "##iod": 3355,
      "##ydro": 3356,
      "##pi": 3357,
      "##cri": 3358,
      "##44": 3359,
      "##onium": 3360,
      "##ato": 3361,
      "##atus": 3362,
      "##atures": 3363,
      "##cture": 3364,
      "##ening": 3365,
      "anch": 3366,
      "anth": 3367,
      "##anched": 3368,
      "##chlor": 3369,
      "tool": 3370,
      "##oline": 3371,
      "covalent": 3372,
      "proce": 3373,
      "chains": 3374,
      "exc": 3375,
      "extract": 3376,
      "##iving": 3377,
      "##ivate": 3378,
      "distributed": 3379,
      "sufficient": 3380,
      "trace": 3381,
      "internal": 3382,
      "mgtfsi": 3383,
      "solvate": 3384,
      "performing": 3385,
      "moist": 3386,
      "##lustr": 3387,
      "##phenyl": 3388,
      "across": 3389,
      "##co1": 3390,
      "##endent": 3391,
      "mechanistic": 3392,
      "measuring": 3393,
      "bound": 3394,
      "industr": 3395,
      "##ressive": 3396,
      "microscopic": 3397,
      "elim": 3398,
      "ecs": 3399,
      "nanos": 3400,
      "include": 3401,
      "trifluoro": 3402,
      "improvements": 3403,
      "determination": 3404,
      "illustr": 3405,
      "quantified": 3406,
      "environments": 3407,
      "enhances": 3408,
      "behaviors": 3409,
      "2010": 3410,
      "2017": 3411,
      "##ependent": 3412,
      "valid": 3413,
      "calculation": 3414,
      "pulse": 3415,
      "smoo": 3416,
      "occur": 3417,
      "serious": 3418,
      "realize": 3419,
      "interesting": 3420,
      "association": 3421,
      "bonding": 3422,
      "150": 3423,
      "##ahigh": 3424,
      "ultraf": 3425,
      "ultrahigh": 3426,
      "atomic": 3427,
      "supporting": 3428,
      "copolymers": 3429,
      "vinylene": 3430,
      "partially": 3431,
      "introduce": 3432,
      "fabrication": 3433,
      "describe": 3434,
      "peaks": 3435,
      "complement": 3436,
      "basic": 3437,
      "addressed": 3438,
      "shuttling": 3439,
      "##coming": 3440,
      "establish": 3441,
      "satisfactory": 3442,
      "profiles": 3443,
      "evidenced": 3444,
      "possesses": 3445,
      "plateau": 3446,
      "deposits": 3447,
      "picture": 3448,
      "thickness": 3449,
      "comprising": 3450,
      "angle": 3451,
      "delith": 3452,
      "adsorption": 3453,
      "hetero": 3454,
      "resources": 3455,
      "reliable": 3456,
      "thermogravimetric": 3457,
      "##while": 3458,
      "ideal": 3459,
      "meanwhile": 3460,
      "individual": 3461,
      "electrocatalysts": 3462,
      "deintercalation": 3463,
      "translational": 3464,
      "lifetime": 3465,
      "tetrahydro": 3466,
      "titration": 3467,
      "vertical": 3468,
      "##ochemical": 3469,
      "treatment": 3470,
      "backbone": 3471,
      "smooth": 3472,
      "2e": 3473,
      "43": 3474,
      "98": 3475,
      "91": 3476,
      "bl": 3477,
      "base": 3478,
      "bri": 3479,
      "bind": 3480,
      "dc": 3481,
      "dur": 3482,
      "down": 3483,
      "fam": 3484,
      "gn": 3485,
      "gap": 3486,
      "gamm": 3487,
      "gained": 3488,
      "ln": 3489,
      "lid": 3490,
      "mc": 3491,
      "pt": 3492,
      "tit": 3493,
      "vel": 3494,
      "vital": 3495,
      "##of": 3496,
      "##other": 3497,
      "##ef": 3498,
      "##lim": 3499,
      "##lay": 3500,
      "##long": 3501,
      "##mg": 3502,
      "##mes": 3503,
      "##not": 3504,
      "##tle": 3505,
      "##rfb": 3506,
      "##ued": 3507,
      "##fbs": 3508,
      "##ks": 3509,
      "##kes": 3510,
      "##3s": 3511,
      "##ject": 3512,
      "thi": 3513,
      "##ones": 3514,
      "##lel": 3515,
      "##levi": 3516,
      "##inity": 3517,
      "antic": 3518,
      "##allel": 3519,
      "inex": 3520,
      "##ets": 3521,
      "limn2o4": 3522,
      "cose2": 3523,
      "##ulate": 3524,
      "##ste": 3525,
      "conce": 3526,
      "forward": 3527,
      "allevi": 3528,
      "iono": 3529,
      "isol": 3530,
      "##ifically": 3531,
      "##through": 3532,
      "ons": 3533,
      "macc": 3534,
      "makes": 3535,
      "dispro": 3536,
      "polyelectro": 3537,
      "tris": 3538,
      "mecn": 3539,
      "##rosso": 3540,
      "capable": 3541,
      "price": 3542,
      "implement": 3543,
      "moi": 3544,
      "unst": 3545,
      "unpre": 3546,
      "spectr": 3547,
      "cellulose": 3548,
      "##ethers": 3549,
      "graf": 3550,
      "accept": 3551,
      "specifically": 3552,
      "cannot": 3553,
      "sulfides": 3554,
      "reduces": 3555,
      "##lications": 3556,
      "involved": 3557,
      "difference": 3558,
      "diffusivities": 3559,
      "param": 3560,
      "parallel": 3561,
      "improves": 3562,
      "event": 3563,
      "plat": 3564,
      "plot": 3565,
      "independent": 3566,
      "position": 3567,
      "least": 3568,
      "imm": 3569,
      "measurement": 3570,
      "moderate": 3571,
      "insight": 3572,
      "##ynamically": 3573,
      "##raquinone": 3574,
      "production": 3575,
      "spat": 3576,
      "alcl2": 3577,
      "##2o7": 3578,
      "hydrolysis": 3579,
      "operate": 3580,
      "revealing": 3581,
      "stronger": 3582,
      "retard": 3583,
      "ordered": 3584,
      "iron": 3585,
      "compare": 3586,
      "comparable": 3587,
      "outstand": 3588,
      "finding": 3589,
      "separation": 3590,
      "separated": 3591,
      "decade": 3592,
      "extensive": 3593,
      "utilized": 3594,
      "inserted": 3595,
      "##po4f": 3596,
      "smaller": 3597,
      "introduction": 3598,
      "classical": 3599,
      "summary": 3600,
      "clear": 3601,
      "motions": 3602,
      "needed": 3603,
      "defined": 3604,
      "##iveness": 3605,
      "selective": 3606,
      "driven": 3607,
      "##quently": 3608,
      "sustainability": 3609,
      "causes": 3610,
      "monitor": 3611,
      "princip": 3612,
      "instead": 3613,
      "aims": 3614,
      "raw": 3615,
      "breakthrough": 3616,
      "##hydro": 3617,
      "ledc": 3618,
      "below": 3619,
      "easy": 3620,
      "produced": 3621,
      "sensitive": 3622,
      "##pyrrolidinium": 3623,
      "intensity": 3624,
      "observ": 3625,
      "cheap": 3626,
      "substantial": 3627,
      "flammability": 3628,
      "##cedented": 3629,
      "opportunities": 3630,
      "cosolv": 3631,
      "obstacles": 3632,
      "desirable": 3633,
      "hopping": 3634,
      "innov": 3635,
      "tetraglyme": 3636,
      "##hydride": 3637,
      "besides": 3638,
      "repeated": 3639,
      "delithiation": 3640,
      "brief": 3641,
      "gamma": 3642,
      "lidf": 3643,
      "titan": 3644,
      "veloc": 3645,
      "inexp": 3646,
      "##rossover": 3647,
      "unprecedented": 3648,
      "outstanding": 3649,
      "45": 3650,
      "600": 3651,
      "73": 3652,
      "aged": 3653,
      "ctfsi": 3654,
      "crossover": 3655,
      "dca": 3656,
      "ein": 3657,
      "hist": 3658,
      "kind": 3659,
      "koh": 3660,
      "mm": 3661,
      "mer": 3662,
      "nh4": 3663,
      "patter": 3664,
      "piv": 3665,
      "pores": 3666,
      "rgo": 3667,
      "sus": 3668,
      "slu": 3669,
      "swe": 3670,
      "ter": 3671,
      "tail": 3672,
      "vac": 3673,
      "vrfb": 3674,
      "width": 3675,
      "°c": 3676,
      "##dma": 3677,
      "##doles": 3678,
      "##lies": 3679,
      "##less": 3680,
      "##tem": 3681,
      "##tim": 3682,
      "##pes": 3683,
      "##622": 3684,
      "##uents": 3685,
      "##ufact": 3686,
      "##fl": 3687,
      "##fur": 3688,
      "##can": 3689,
      "##esp": 3690,
      "##inuclear": 3691,
      "##inones": 3692,
      "##aling": 3693,
      "incomp": 3694,
      "##anol": 3695,
      "##arable": 3696,
      "##ready": 3697,
      "##ching": 3698,
      "##idene": 3699,
      "rece": 3700,
      "star": 3701,
      "stoichi": 3702,
      "status": 3703,
      "li3v": 3704,
      "##ulph": 3705,
      "already": 3706,
      "prolong": 3707,
      "assis": 3708,
      "enco": 3709,
      "enmr": 3710,
      "##oprop": 3711,
      "##ereal": 3712,
      "trac": 3713,
      "interlay": 3714,
      "impur": 3715,
      "impressive": 3716,
      "care": 3717,
      "carriers": 3718,
      "unex": 3719,
      "spectral": 3720,
      "carbonyl": 3721,
      "accomp": 3722,
      "oxal": 3723,
      "sulfolane": 3724,
      "descri": 3725,
      "teg": 3726,
      "effectiveness": 3727,
      "nuclei": 3728,
      "##cale": 3729,
      "route": 3730,
      "ethereal": 3731,
      "transportation": 3732,
      "qual": 3733,
      "lifesp": 3734,
      "thermally": 3735,
      "challenging": 3736,
      "##arily": 3737,
      "little": 3738,
      "variation": 3739,
      "technological": 3740,
      "advance": 3741,
      "##adily": 3742,
      "six": 3743,
      "sio2": 3744,
      "confined": 3745,
      "exhibiting": 3746,
      "channel": 3747,
      "feature": 3748,
      "##ggish": 3749,
      "mix": 3750,
      "limits": 3751,
      "limiting": 3752,
      "gover": 3753,
      "particle": 3754,
      "explained": 3755,
      "considering": 3756,
      "dmf": 3757,
      "exceed": 3758,
      "exception": 3759,
      "multinuclear": 3760,
      "manufact": 3761,
      "gradients": 3762,
      "substr": 3763,
      "glymes": 3764,
      "smart": 3765,
      "comparative": 3766,
      "optimum": 3767,
      "realized": 3768,
      "severely": 3769,
      "assess": 3770,
      "critically": 3771,
      "expand": 3772,
      "simulation": 3773,
      "pairing": 3774,
      "environmentally": 3775,
      "levels": 3776,
      "stabilities": 3777,
      "blends": 3778,
      "pegme": 3779,
      "partial": 3780,
      "parameter": 3781,
      "emerged": 3782,
      "pani": 3783,
      "render": 3784,
      "release": 3785,
      "continuum": 3786,
      "monomer": 3787,
      "rapidly": 3788,
      "nmc622": 3789,
      "replace": 3790,
      "representative": 3791,
      "enabling": 3792,
      "subsequently": 3793,
      "maintaining": 3794,
      "preferential": 3795,
      "authors": 3796,
      "collectors": 3797,
      "mitigate": 3798,
      "purity": 3799,
      "observe": 3800,
      "competitive": 3801,
      "dispers": 3802,
      "flammable": 3803,
      "consequ": 3804,
      "bromide": 3805,
      "##capac": 3806,
      "feasible": 3807,
      "##agnetic": 3808,
      "accumulation": 3809,
      "pgse": 3810,
      "rotational": 3811,
      "trigg": 3812,
      "irreversible": 3813,
      "nanostructured": 3814,
      "nanocomposite": 3815,
      "physicochemical": 3816,
      "al2cl7": 3817,
      "believe": 3818,
      "migration": 3819,
      "casting": 3820,
      "fixed": 3821,
      "predominantly": 3822,
      "global": 3823,
      "moisture": 3824,
      "ultrafast": 3825,
      "tetrahydrofur": 3826,
      "2eo": 3827,
      "lnmo": 3828,
      "##stein": 3829,
      "concepts": 3830,
      "disproportion": 3831,
      "unstable": 3832,
      "spectrum": 3833,
      "inexpensive": 3834,
      "einstein": 3835,
      "sluggish": 3836,
      "sweep": 3837,
      "li3vo4": 3838,
      "tetrahydrofuran": 3839,
      "26": 3840,
      "33": 3841,
      "67": 3842,
      "7li": 3843,
      "97": 3844,
      "bf": 3845,
      "cut": 3846,
      "cases": 3847,
      "clo4": 3848,
      "dh": 3849,
      "don": 3850,
      "dig": 3851,
      "dod": 3852,
      "er": 3853,
      "fade": 3854,
      "gain": 3855,
      "gases": 3856,
      "hold": 3857,
      "just": 3858,
      "lmbs": 3859,
      "mx": 3860,
      "mim": 3861,
      "mcm": 3862,
      "nit": 3863,
      "nar": 3864,
      "nas": 3865,
      "nac": 3866,
      "nern": 3867,
      "ntf": 3868,
      "oct": 3869,
      "rigo": 3870,
      "rmbs": 3871,
      "ss": 3872,
      "set": 3873,
      "tin": 3874,
      "tmp": 3875,
      "vibr": 3876,
      "∼1": 3877,
      "##oid": 3878,
      "##orous": 3879,
      "##nected": 3880,
      "##s2": 3881,
      "##s3": 3882,
      "##sil": 3883,
      "##gent": 3884,
      "##alen": 3885,
      "##pn": 3886,
      "##80": 3887,
      "##zed": 3888,
      "##qds": 3889,
      "##atile": 3890,
      "##roc": 3891,
      "##itors": 3892,
      "##enes": 3893,
      "##ened": 3894,
      "##orb": 3895,
      "inactive": 3896,
      "##aringly": 3897,
      "electrost": 3898,
      "##olve": 3899,
      "##ido": 3900,
      "readily": 3901,
      "stack": 3902,
      "##ems": 3903,
      "coated": 3904,
      "##ulsion": 3905,
      "##attering": 3906,
      "##peg": 3907,
      "onto": 3908,
      "restri": 3909,
      "magic": 3910,
      "atm": 3911,
      "atr": 3912,
      "extent": 3913,
      "excess": 3914,
      "##acet": 3915,
      "track": 3916,
      "whole": 3917,
      "interpre": 3918,
      "wearable": 3919,
      "period": 3920,
      "##elling": 3921,
      "mgo": 3922,
      "implications": 3923,
      "##ulfonic": 3924,
      "carrier": 3925,
      "mof": 3926,
      "mofs": 3927,
      "##ansion": 3928,
      "ionicity": 3929,
      "##otub": 3930,
      "formulation": 3931,
      "applying": 3932,
      "magnitude": 3933,
      "##etrical": 3934,
      "comm": 3935,
      "underlying": 3936,
      "##ancy": 3937,
      "boost": 3938,
      "applicability": 3939,
      "##ologies": 3940,
      "hyper": 3941,
      "place": 3942,
      "plag": 3943,
      "currents": 3944,
      "newly": 3945,
      "imidazole": 3946,
      "clar": 3947,
      "useful": 3948,
      "largely": 3949,
      "variable": 3950,
      "sparingly": 3951,
      "nanotub": 3952,
      "##luorinated": 3953,
      "dendritic": 3954,
      "hydrogel": 3955,
      "explo": 3956,
      "quantification": 3957,
      "reductive": 3958,
      "multifunctional": 3959,
      "2016": 3960,
      "2013": 3961,
      "lino3": 3962,
      "commercially": 3963,
      "esf": 3964,
      "ester": 3965,
      "2009": 3966,
      "scattering": 3967,
      "models": 3968,
      "equivalent": 3969,
      "alkyl": 3970,
      "facing": 3971,
      "phosphite": 3972,
      "assigned": 3973,
      "loading": 3974,
      "utilizing": 3975,
      "acetamide": 3976,
      "dissociated": 3977,
      "##abilities": 3978,
      "spinel": 3979,
      "spinning": 3980,
      "ultim": 3981,
      "expansion": 3982,
      "analyze": 3983,
      "consists": 3984,
      "chlorine": 3985,
      "evaluate": 3986,
      "hosts": 3987,
      "flame": 3988,
      "examine": 3989,
      "benefiting": 3990,
      "prevents": 3991,
      "latest": 3992,
      "stabilize": 3993,
      "stabilizing": 3994,
      "highlighting": 3995,
      "achievements": 3996,
      "introducing": 3997,
      "selected": 3998,
      "##ropic": 3999,
      "couple": 4000,
      "oligomers": 4001,
      "120": 4002,
      "sulfonimide": 4003,
      "reached": 4004,
      "macrom": 4005,
      "350": 4006,
      "al2s3": 4007,
      "exists": 4008,
      "thermodynamically": 4009,
      "approximately": 4010,
      "prepare": 4011,
      "deposited": 4012,
      "take": 4013,
      "acrylonitrile": 4014,
      "aggregates": 4015,
      "pyrrolidinium": 4016,
      "contributions": 4017,
      "certain": 4018,
      "hydroxyl": 4019,
      "protection": 4020,
      "consequently": 4021,
      "csf": 4022,
      "precurs": 4023,
      "icp": 4024,
      "discovery": 4025,
      "protocols": 4026,
      "cf3so": 4027,
      "prototype": 4028,
      "accurate": 4029,
      "macroporous": 4030,
      "appears": 4031,
      "concerns": 4032,
      "elucidate": 4033,
      "unsat": 4034,
      "defects": 4035,
      "plasticizer": 4036,
      "tio2": 4037,
      "conjug": 4038,
      "alpha": 4039,
      "trapping": 4040,
      "numerous": 4041,
      "exciting": 4042,
      "illustrated": 4043,
      "binding": 4044,
      "durability": 4045,
      "paramagnetic": 4046,
      "suscept": 4047,
      "prolonged": 4048,
      "##opropyl": 4049,
      "impurities": 4050,
      "careful": 4051,
      "accompan": 4052,
      "tegdme": 4053,
      "mixing": 4054,
      "mcmb": 4055,
      "nernst": 4056,
      "ntf2": 4057,
      "rigorous": 4058,
      "electrostatic": 4059,
      "plagued": 4060,
      "01": 4061,
      "1o2": 4062,
      "28": 4063,
      "34": 4064,
      "87": 4065,
      "83": 4066,
      "96": 4067,
      "aib": 4068,
      "bot": 4069,
      "cur": 4070,
      "cate": 4071,
      "cub": 4072,
      "dn": 4073,
      "dram": 4074,
      "flu": 4075,
      "fill": 4076,
      "give": 4077,
      "har": 4078,
      "ls": 4079,
      "lh": 4080,
      "lco": 4081,
      "l−1": 4082,
      "labs": 4083,
      "mv": 4084,
      "mis": 4085,
      "mode": 4086,
      "might": 4087,
      "moss": 4088,
      "nitrile": 4089,
      "om": 4090,
      "p2": 4091,
      "pst": 4092,
      "pil": 4093,
      "ris": 4094,
      "run": 4095,
      "rhe": 4096,
      "rfbs": 4097,
      "sizes": 4098,
      "siloxane": 4099,
      "tp": 4100,
      "ttf": 4101,
      "vul": 4102,
      "##orough": 4103,
      "##dmbs": 4104,
      "##mb": 4105,
      "##methyl": 4106,
      "##ne": 4107,
      "##n1": 4108,
      "##tlene": 4109,
      "##sa": 4110,
      "##bl": 4111,
      "##gor": 4112,
      "##ruct": 4113,
      "##radi": 4114,
      "##au": 4115,
      "##air": 4116,
      "##aged": 4117,
      "##pb": 4118,
      "##polar": 4119,
      "##x10": 4120,
      "##fc": 4121,
      "##fluoro": 4122,
      "##cle": 4123,
      "##3o": 4124,
      "##just": 4125,
      "thorough": 4126,
      "##inal": 4127,
      "##alk": 4128,
      "##ionic": 4129,
      "##oric": 4130,
      "inverse": 4131,
      "##eties": 4132,
      "##etically": 4133,
      "##cher": 4134,
      "##oluble": 4135,
      "##igu": 4136,
      "stim": 4137,
      "##strom": 4138,
      "conclus": 4139,
      "alf3": 4140,
      "aligned": 4141,
      "al2o3": 4142,
      "##urally": 4143,
      "ionization": 4144,
      "devi": 4145,
      "choline": 4146,
      "##uctu": 4147,
      "##iment": 4148,
      "##imidazole": 4149,
      "##oses": 4150,
      "resolution": 4151,
      "making": 4152,
      "attain": 4153,
      "##ived": 4154,
      "comprom": 4155,
      "compens": 4156,
      "complic": 4157,
      "disor": 4158,
      "metric": 4159,
      "polyacryl": 4160,
      "intercon": 4161,
      "##amethyl": 4162,
      "perchlor": 4163,
      "she": 4164,
      "shed": 4165,
      "cyan": 4166,
      "capt": 4167,
      "capabilities": 4168,
      "adjust": 4169,
      "##estruct": 4170,
      "difluoro": 4171,
      "orient": 4172,
      "solvates": 4173,
      "move": 4174,
      "unra": 4175,
      "until": 4176,
      "search": 4177,
      "##ewidth": 4178,
      "catholyte": 4179,
      "carbons": 4180,
      "##otal": 4181,
      "##so4": 4182,
      "acqu": 4183,
      "neat": 4184,
      "methacrylate": 4185,
      "##ancies": 4186,
      "diethylene": 4187,
      "dihydro": 4188,
      "boro": 4189,
      "##look": 4190,
      "hydr": 4191,
      "plays": 4192,
      "quinones": 4193,
      "firstly": 4194,
      "image": 4195,
      "##ightly": 4196,
      "electrons": 4197,
      "insoluble": 4198,
      "micros": 4199,
      "microsc": 4200,
      "gels": 4201,
      "fields": 4202,
      "soft": 4203,
      "discussion": 4204,
      "span": 4205,
      "interphases": 4206,
      "changed": 4207,
      "##luoride": 4208,
      "dendrim": 4209,
      "##like": 4210,
      "exploring": 4211,
      "methylpyrrolidinium": 4212,
      "considerably": 4213,
      "fluorination": 4214,
      "ranging": 4215,
      "2012": 4216,
      "##acks": 4217,
      "linewidth": 4218,
      "operational": 4219,
      "heat": 4220,
      "retained": 4221,
      "irradi": 4222,
      "2008": 4223,
      "##tils": 4224,
      "confirms": 4225,
      "region": 4226,
      "final": 4227,
      "outlook": 4228,
      "allowed": 4229,
      "focuses": 4230,
      "equation": 4231,
      "serve": 4232,
      "separators": 4233,
      "alloying": 4234,
      "correlate": 4235,
      "reacts": 4236,
      "phosphorus": 4237,
      "assum": 4238,
      "exposed": 4239,
      "bonds": 4240,
      "windows": 4241,
      "##ophosph": 4242,
      "branched": 4243,
      "primarily": 4244,
      "aven": 4245,
      "transformation": 4246,
      "losses": 4247,
      "selection": 4248,
      "estimate": 4249,
      "mediators": 4250,
      "intermolecular": 4251,
      "mpc": 4252,
      "oligoether": 4253,
      "resistive": 4254,
      "following": 4255,
      "profound": 4256,
      "raibs": 4257,
      "points": 4258,
      "microstructures": 4259,
      "suffers": 4260,
      "weaker": 4261,
      "entire": 4262,
      "electrocatalytic": 4263,
      "steady": 4264,
      "produce": 4265,
      "organos": 4266,
      "acrylate": 4267,
      "involves": 4268,
      "maintains": 4269,
      "details": 4270,
      "affects": 4271,
      "preferred": 4272,
      "vinylidene": 4273,
      "collector": 4274,
      "angstrom": 4275,
      "symmetrical": 4276,
      "remarkably": 4277,
      "160": 4278,
      "substantially": 4279,
      "edge": 4280,
      "completely": 4281,
      "trends": 4282,
      "frtils": 4283,
      "tfo": 4284,
      "feasibility": 4285,
      "crosslinking": 4286,
      "homogeneous": 4287,
      "melting": 4288,
      "adopted": 4289,
      "according": 4290,
      "build": 4291,
      "bmi": 4292,
      "synerg": 4293,
      "tetrafluoroborate": 4294,
      "affordable": 4295,
      "reflect": 4296,
      "covering": 4297,
      "gradually": 4298,
      "saturated": 4299,
      "dgm": 4300,
      "ferroc": 4301,
      "napf6": 4302,
      "nafion": 4303,
      "nitrate": 4304,
      "scalable": 4305,
      "anthraquinone": 4306,
      "proceeds": 4307,
      "elimin": 4308,
      "nanoscale": 4309,
      "family": 4310,
      "onset": 4311,
      "polyelectrolyte": 4312,
      "moieties": 4313,
      "spatial": 4314,
      "retardant": 4315,
      "principle": 4316,
      "breakthroughs": 4317,
      "innovative": 4318,
      "titanium": 4319,
      "kinds": 4320,
      "merits": 4321,
      "pivotal": 4322,
      "interlayer": 4323,
      "lifespan": 4324,
      "dhdmbs": 4325,
      "diglyme": 4326,
      "nitro": 4327,
      "vibrational": 4328,
      "restrict": 4329,
      "commun": 4330,
      "susceptibility": 4331,
      "bottlene": 4332,
      "cubic": 4333,
      "pstfsi": 4334,
      "ttfpi": 4335,
      "metrics": 4336,
      "interconnected": 4337,
      "perchlorate": 4338,
      "bottleneck": 4339,
      "00": 4340,
      "38": 4341,
      "66": 4342,
      "78": 4343,
      "72": 4344,
      "84": 4345,
      "92": 4346,
      "alet": 4347,
      "bmp": 4348,
      "bend": 4349,
      "cn": 4350,
      "cf": 4351,
      "ded": 4352,
      "did": 4353,
      "dge": 4354,
      "dos": 4355,
      "dha": 4356,
      "ea": 4357,
      "face": 4358,
      "gic": 4359,
      "get": 4360,
      "gall": 4361,
      "hr": 4362,
      "h2": 4363,
      "ml": 4364,
      "mil": 4365,
      "mma": 4366,
      "pent": 4367,
      "pack": 4368,
      "rar": 4369,
      "ration": 4370,
      "sr": 4371,
      "scre": 4372,
      "sized": 4373,
      "tens": 4374,
      "tip": 4375,
      "tert": 4376,
      "tte": 4377,
      "ur": 4378,
      "var": 4379,
      "wor": 4380,
      "wet": 4381,
      "wides": 4382,
      "wall": 4383,
      "ways": 4384,
      "zib": 4385,
      "##oly": 4386,
      "##oate": 4387,
      "##dw": 4388,
      "##day": 4389,
      "##line": 4390,
      "##vol": 4391,
      "##volution": 4392,
      "##v2o5": 4393,
      "##nary": 4394,
      "##bi": 4395,
      "##ben": 4396,
      "##backs": 4397,
      "##aic": 4398,
      "##ped": 4399,
      "##pper": 4400,
      "##hcl": 4401,
      "##uish": 4402,
      "##ufficient": 4403,
      "##cer": 4404,
      "##11": 4405,
      "##13": 4406,
      "##jected": 4407,
      "##ont": 4408,
      "##onse": 4409,
      "##ester": 4410,
      "##rods": 4411,
      "##itect": 4412,
      "##ino": 4413,
      "##int": 4414,
      "##inent": 4415,
      "##inyl": 4416,
      "another": 4417,
      "anhydride": 4418,
      "##alt": 4419,
      "##als": 4420,
      "##anidine": 4421,
      "electroactive": 4422,
      "today": 4423,
      "##idity": 4424,
      "stages": 4425,
      "##ements": 4426,
      "li2o": 4427,
      "copper": 4428,
      "##ulating": 4429,
      "ali": 4430,
      "##iling": 4431,
      "dead": 4432,
      "prove": 4433,
      "proved": 4434,
      "protic": 4435,
      "poros": 4436,
      "##ussi": 4437,
      "##uted": 4438,
      "ascrib": 4439,
      "##ired": 4440,
      "ones": 4441,
      "ongo": 4442,
      "##ibilities": 4443,
      "ens": 4444,
      "##osure": 4445,
      "areal": 4446,
      "attem": 4447,
      "disulfonic": 4448,
      "##cl3": 4449,
      "polyan": 4450,
      "##amidine": 4451,
      "##aternary": 4452,
      "##adaic": 4453,
      "##romatic": 4454,
      "shor": 4455,
      "energ": 4456,
      "##ense": 4457,
      "##ulfon": 4458,
      "orb": 4459,
      "conductor": 4460,
      "conductors": 4461,
      "mo6": 4462,
      "und": 4463,
      "unit": 4464,
      "seg": 4465,
      "sequ": 4466,
      "##lue": 4467,
      "##oted": 4468,
      "##otropic": 4469,
      "grain": 4470,
      "structured": 4471,
      "nearly": 4472,
      "foil": 4473,
      "evolved": 4474,
      "na2": 4475,
      "nafsi": 4476,
      "characterised": 4477,
      "actual": 4478,
      "nond": 4479,
      "road": 4480,
      "costs": 4481,
      "cmc": 4482,
      "safer": 4483,
      "##onstruct": 4484,
      "crust": 4485,
      "quaternary": 4486,
      "resonances": 4487,
      "experi": 4488,
      "twice": 4489,
      "leak": 4490,
      "202": 4491,
      "images": 4492,
      "modul": 4493,
      "insufficient": 4494,
      "##tinguish": 4495,
      "soak": 4496,
      "viability": 4497,
      "changing": 4498,
      "features": 4499,
      "mostly": 4500,
      "##ilicon": 4501,
      "throughout": 4502,
      "complexation": 4503,
      "quantities": 4504,
      "##ammonium": 4505,
      "longer": 4506,
      "option": 4507,
      "2018": 4508,
      "2011": 4509,
      "2014": 4510,
      "arch": 4511,
      "arising": 4512,
      "remo": 4513,
      "green": 4514,
      "supercon": 4515,
      "supercapac": 4516,
      "licl": 4517,
      "2000": 4518,
      "optimize": 4519,
      "oxidized": 4520,
      "occup": 4521,
      "focusing": 4522,
      "central": 4523,
      "extensively": 4524,
      "influences": 4525,
      "nanorods": 4526,
      "acetamidine": 4527,
      "polarisation": 4528,
      "doub": 4529,
      "semi": 4530,
      "hfip": 4531,
      "expensive": 4532,
      "exposure": 4533,
      "##cryst": 4534,
      "fundamentals": 4535,
      "vehicle": 4536,
      "##ophene": 4537,
      "fluctu": 4538,
      "clean": 4539,
      "stabilization": 4540,
      "minor": 4541,
      "needs": 4542,
      "avoid": 4543,
      "controlling": 4544,
      "ppy": 4545,
      "defici": 4546,
      "affected": 4547,
      "summarize": 4548,
      "summarizes": 4549,
      "mediated": 4550,
      "impacts": 4551,
      "factor": 4552,
      "guide": 4553,
      "guanidine": 4554,
      "mpa": 4555,
      "mpyr": 4556,
      "helps": 4557,
      "autom": 4558,
      "faradaic": 4559,
      "lini1": 4560,
      "5000": 4561,
      "monovalent": 4562,
      "cu2": 4563,
      "##balance": 4564,
      "profile": 4565,
      "binders": 4566,
      "requirement": 4567,
      "breaking": 4568,
      "ceo2": 4569,
      "blocking": 4570,
      "##pread": 4571,
      "inhibiting": 4572,
      "steps": 4573,
      "organophosph": 4574,
      "bench": 4575,
      "delta": 4576,
      "response": 4577,
      "cm−3": 4578,
      "remaining": 4579,
      "analogues": 4580,
      "carboxyl": 4581,
      "thermodynamics": 4582,
      "integrated": 4583,
      "bromine": 4584,
      "record": 4585,
      "reconstruct": 4586,
      "constructed": 4587,
      "resource": 4588,
      "tfap": 4589,
      "##caps": 4590,
      "accelerate": 4591,
      "accelerated": 4592,
      "crosslinked": 4593,
      "guidance": 4594,
      "prototypes": 4595,
      "ligands": 4596,
      "sharp": 4597,
      "built": 4598,
      "240": 4599,
      "coatings": 4600,
      "concluded": 4601,
      "interacting": 4602,
      "drawbacks": 4603,
      "precipitation": 4604,
      "pamam": 4605,
      "turn": 4606,
      "extracted": 4607,
      "industrial": 4608,
      "black": 4609,
      "isolated": 4610,
      "eventually": 4611,
      "cosolvents": 4612,
      "lidfob": 4613,
      "patterns": 4614,
      "stoichiometric": 4615,
      "assisted": 4616,
      "unexpected": 4617,
      "exceptionally": 4618,
      "manufacturing": 4619,
      "al2cl7−": 4620,
      "disproportionation": 4621,
      "narrow": 4622,
      "##silane": 4623,
      "atmosph": 4624,
      "hydrogels": 4625,
      "accompanied": 4626,
      "omts": 4627,
      "tpah": 4628,
      "vulcan": 4629,
      "complicated": 4630,
      "disorder": 4631,
      "polyacrylonitrile": 4632,
      "cyanide": 4633,
      "dihydrox": 4634,
      "microscope": 4635,
      "nitrogen": 4636,
      "dhaq": 4637,
      "tip2o7": 4638,
      "urgent": 4639,
      "worl": 4640,
      "widespread": 4641,
      "##benz": 4642,
      "porosity": 4643,
      "##ussian": 4644,
      "ascribed": 4645,
      "ongoing": 4646,
      "leakage": 4647,
      "superconcentr": 4648,
      "1d": 4649,
      "1c": 4650,
      "2p": 4651,
      "22": 4652,
      "36": 4653,
      "32": 4654,
      "3o2": 4655,
      "3co1": 4656,
      "49": 4657,
      "51": 4658,
      "65": 4659,
      "61": 4660,
      "74": 4661,
      "8co0": 4662,
      "au": 4663,
      "aqds": 4664,
      "aromatic": 4665,
      "blue": 4666,
      "c2": 4667,
      "core": 4668,
      "da": 4669,
      "detr": 4670,
      "ee": 4671,
      "ep": 4672,
      "esi": 4673,
      "ease": 4674,
      "fit": 4675,
      "fid": 4676,
      "fos": 4677,
      "fulf": 4678,
      "fire": 4679,
      "gbl": 4680,
      "hp": 4681,
      "hier": 4682,
      "ice": 4683,
      "jum": 4684,
      "ko2": 4685,
      "lp": 4686,
      "lign": 4687,
      "mch": 4688,
      "modes": 4689,
      "outer": 4690,
      "pen": 4691,
      "purs": 4692,
      "p2o5": 4693,
      "rol": 4694,
      "rand": 4695,
      "s8": 4696,
      "sap": 4697,
      "sba": 4698,
      "tis": 4699,
      "tamm": 4700,
      "tf2": 4701,
      "vop": 4702,
      "vdf": 4703,
      "wises": 4704,
      "xse": 4705,
      "xfc": 4706,
      "zi": 4707,
      "zw": 4708,
      "##off": 4709,
      "##eed": 4710,
      "##even": 4711,
      "##ll": 4712,
      "##morph": 4713,
      "##nsc": 4714,
      "##tability": 4715,
      "##sh": 4716,
      "##s8": 4717,
      "##ster": 4718,
      "##i0": 4719,
      "##iary": 4720,
      "##yrol": 4721,
      "##rup": 4722,
      "##ave": 4723,
      "##hen": 4724,
      "##hol": 4725,
      "##uent": 4726,
      "##uable": 4727,
      "##fy": 4728,
      "##cibility": 4729,
      "##1n1": 4730,
      "##41": 4731,
      "##3n": 4732,
      "##qs": 4733,
      "##onal": 4734,
      "##ror": 4735,
      "##itter": 4736,
      "##inement": 4737,
      "##enari": 4738,
      "##edral": 4739,
      "##icyl": 4740,
      "##orrel": 4741,
      "ine": 4742,
      "##ision": 4743,
      "top": 4744,
      "##olan": 4745,
      "##ids": 4746,
      "stain": 4747,
      "liod": 4748,
      "coo": 4749,
      "allyl": 4750,
      "dee": 4751,
      "deco": 4752,
      "deuter": 4753,
      "##abor": 4754,
      "##actone": 4755,
      "##thor": 4756,
      "##imes": 4757,
      "reser": 4758,
      "resid": 4759,
      "resolve": 4760,
      "exter": 4761,
      "disiloxane": 4762,
      "metath": 4763,
      "polyc": 4764,
      "polyphosph": 4765,
      "polypyr": 4766,
      "uses": 4767,
      "interpl": 4768,
      "##aml": 4769,
      "##amido": 4770,
      "perf": 4771,
      "##adrup": 4772,
      "##take": 4773,
      "strip": 4774,
      "adap": 4775,
      "##ensation": 4776,
      "prior": 4777,
      "mgcl": 4778,
      "unity": 4779,
      "unus": 4780,
      "unlike": 4781,
      "seen": 4782,
      "seis": 4783,
      "section": 4784,
      "seaw": 4785,
      "##phere": 4786,
      "##viole": 4787,
      "##silyl": 4788,
      "dense": 4789,
      "salicyl": 4790,
      "sulfate": 4791,
      "resulted": 4792,
      "volatile": 4793,
      "alumina": 4794,
      "prelim": 4795,
      "electrically": 4796,
      "##aining": 4797,
      "foam": 4798,
      "diame": 4799,
      "prominent": 4800,
      "surve": 4801,
      "hyd": 4802,
      "hyster": 4803,
      "plated": 4804,
      "indeed": 4805,
      "ethoxy": 4806,
      "deplet": 4807,
      "synch": 4808,
      "##ctions": 4809,
      "uptake": 4810,
      "quite": 4811,
      "quadrup": 4812,
      "designs": 4813,
      "##astically": 4814,
      "significance": 4815,
      "butyrol": 4816,
      "obey": 4817,
      "notice": 4818,
      "insp": 4819,
      "degreesc": 4820,
      "gelled": 4821,
      "##akes": 4822,
      "decomposed": 4823,
      "generally": 4824,
      "deterior": 4825,
      "impeding": 4826,
      "limitation": 4827,
      "trifl": 4828,
      "acids": 4829,
      "particip": 4830,
      "determining": 4831,
      "fulcher": 4832,
      "functions": 4833,
      "devoted": 4834,
      "considerations": 4835,
      "dmac": 4836,
      "fluores": 4837,
      "fluorides": 4838,
      "ranges": 4839,
      "scaff": 4840,
      "scaven": 4841,
      "options": 4842,
      "2019": 4843,
      "arises": 4844,
      "linking": 4845,
      "commercialized": 4846,
      "possibility": 4847,
      "possibly": 4848,
      "possibilities": 4849,
      "valuable": 4850,
      "paa": 4851,
      "pah": 4852,
      "paes": 4853,
      "pave": 4854,
      "protected": 4855,
      "pulver": 4856,
      "2002": 4857,
      "2003": 4858,
      "catalyzed": 4859,
      "scm": 4860,
      "scenari": 4861,
      "depending": 4862,
      "pvc": 4863,
      "##azole": 4864,
      "powerful": 4865,
      "tetramethyl": 4866,
      "element": 4867,
      "ethers": 4868,
      "equal": 4869,
      "separately": 4870,
      "realistic": 4871,
      "centers": 4872,
      "phosphates": 4873,
      "phosphonate": 4874,
      "load": 4875,
      "interestingly": 4876,
      "testing": 4877,
      "molten": 4878,
      "classes": 4879,
      "requiring": 4880,
      "bonded": 4881,
      "evaluation": 4882,
      "opens": 4883,
      "examines": 4884,
      "standing": 4885,
      "quantitatively": 4886,
      "domain": 4887,
      "displac": 4888,
      "##atory": 4889,
      "selectively": 4890,
      "drastically": 4891,
      "fluorophosph": 4892,
      "morphologies": 4893,
      "halogen": 4894,
      "slightly": 4895,
      "tuned": 4896,
      "intrigu": 4897,
      "suppressed": 4898,
      "suppressing": 4899,
      "contrary": 4900,
      "continuously": 4901,
      "represents": 4902,
      "hindering": 4903,
      "monitoring": 4904,
      "facilitated": 4905,
      "facilitating": 4906,
      "closely": 4907,
      "monomers": 4908,
      "endow": 4909,
      "libob0": 4910,
      "incorporating": 4911,
      "dioxolan": 4912,
      "dils": 4913,
      "slower": 4914,
      "occurred": 4915,
      "taken": 4916,
      "steel": 4917,
      "affecting": 4918,
      "appealing": 4919,
      "configurations": 4920,
      "sensors": 4921,
      "contributes": 4922,
      "frameworks": 4923,
      "pbp": 4924,
      "pbqs": 4925,
      "purp": 4926,
      "treated": 4927,
      "extra": 4928,
      "intensities": 4929,
      "lixv2o5": 4930,
      "triethyl": 4931,
      "hydroxy": 4932,
      "protective": 4933,
      "analogs": 4934,
      "adsorb": 4935,
      "minimal": 4936,
      "radiation": 4937,
      "radius": 4938,
      "precise": 4939,
      "reliability": 4940,
      "original": 4941,
      "mesop": 4942,
      "predicted": 4943,
      "thermogravimetry": 4944,
      "pyro": 4945,
      "pydma": 4946,
      "##away": 4947,
      "dissolve": 4948,
      "guidel": 4949,
      "opportunity": 4950,
      "thinner": 4951,
      "played": 4952,
      "accordingly": 4953,
      "replaced": 4954,
      "replacing": 4955,
      "tmsi": 4956,
      "share": 4957,
      "constituents": 4958,
      "##propyl": 4959,
      "bmim": 4960,
      "fc1n1": 4961,
      "market": 4962,
      "formula": 4963,
      "economic": 4964,
      "economical": 4965,
      "coordinating": 4966,
      "every": 4967,
      "vogel": 4968,
      "ultraviole": 4969,
      "dicyano": 4970,
      "holds": 4971,
      "pmma": 4972,
      "pmaml": 4973,
      "##4441": 4974,
      "trifluoroethyl": 4975,
      "complementary": 4976,
      "anticip": 4977,
      "acceptable": 4978,
      "platform": 4979,
      "plotted": 4980,
      "briefly": 4981,
      "velocity": 4982,
      "received": 4983,
      "starting": 4984,
      "description": 4985,
      "channels": 4986,
      "govern": 4987,
      "expanded": 4988,
      "preferentially": 4989,
      "dispersive": 4990,
      "donor": 4991,
      "error": 4992,
      "mxene": 4993,
      "nasic": 4994,
      "naclo4": 4995,
      "##alence": 4996,
      "interpret": 4997,
      "clarified": 4998,
      "nanotube": 4999,
      "exploit": 5000,
      "ultimately": 5001,
      "macromolecular": 5002,
      "precursor": 5003,
      "cf3so2": 5004,
      "carefully": 5005,
      "curves": 5006,
      "categor": 5007,
      "lhces": 5008,
      "miscibility": 5009,
      "runaway": 5010,
      "##imental": 5011,
      "##estructive": 5012,
      "unravel": 5013,
      "dendrimers": 5014,
      "irradiation": 5015,
      "organosilicon": 5016,
      "ferrocene": 5017,
      "cnt": 5018,
      "dosy": 5019,
      "##itecture": 5020,
      "mo6s8": 5021,
      "architecture": 5022,
      "##crystall": 5023,
      "organophosphorus": 5024,
      "detrimental": 5025,
      "hierarch": 5026,
      "lignin": 5027,
      "random": 5028,
      "tamman": 5029,
      "tf2n": 5030,
      "vopo4": 5031,
      "zwitter": 5032,
      "##nscs": 5033,
      "stainless": 5034,
      "liodfb": 5035,
      "metathesis": 5036,
      "seawater": 5037,
      "hysteresis": 5038,
      "depletion": 5039,
      "butyrolactone": 5040,
      "fc1n112": 5041,
      "ultraviolet": 5042,
      "06": 5043,
      "3mn1": 5044,
      "46": 5045,
      "48": 5046,
      "42": 5047,
      "56": 5048,
      "57": 5049,
      "52": 5050,
      "6h": 5051,
      "68": 5052,
      "62": 5053,
      "71": 5054,
      "700": 5055,
      "86": 5056,
      "82": 5057,
      "94": 5058,
      "aa": 5059,
      "ax": 5060,
      "aid": 5061,
      "bp": 5062,
      "bc": 5063,
      "bal": 5064,
      "dx": 5065,
      "dli": 5066,
      "eq": 5067,
      "eds": 5068,
      "f2": 5069,
      "gm": 5070,
      "g1": 5071,
      "gase": 5072,
      "hn": 5073,
      "hes": 5074,
      "hum": 5075,
      "hope": 5076,
      "iv": 5077,
      "ig": 5078,
      "ipn": 5079,
      "lam": 5080,
      "lmc": 5081,
      "ldoles": 5082,
      "map": 5083,
      "nca": 5084,
      "plo": 5085,
      "pdoles": 5086,
      "p3o": 5087,
      "rise": 5088,
      "sa": 5089,
      "sch": 5090,
      "som": 5091,
      "sulph": 5092,
      "tb": 5093,
      "targ": 5094,
      "tdi": 5095,
      "tau": 5096,
      "v2": 5097,
      "vir": 5098,
      "vtf": 5099,
      "wo3": 5100,
      "yl": 5101,
      "##obic": 5102,
      "##ek": 5103,
      "##lig": 5104,
      "##vrel": 5105,
      "##vpo4f": 5106,
      "##vinyl": 5107,
      "##mas": 5108,
      "##mark": 5109,
      "##tion": 5110,
      "##tun": 5111,
      "##tfsa": 5112,
      "##sn": 5113,
      "##bz": 5114,
      "##block": 5115,
      "##ius": 5116,
      "##ips": 5117,
      "##iously": 5118,
      "##gly": 5119,
      "##gli": 5120,
      "##yle": 5121,
      "##ymm": 5122,
      "##ale": 5123,
      "##put": 5124,
      "##pram": 5125,
      "##pmc": 5126,
      "##xtr": 5127,
      "##xmn": 5128,
      "##hombic": 5129,
      "##field": 5130,
      "##cence": 5131,
      "##91": 5132,
      "##14": 5133,
      "##kg": 5134,
      "##ker": 5135,
      "##ken": 5136,
      "##know": 5137,
      "##zn": 5138,
      "##46": 5139,
      "##3co": 5140,
      "thbz": 5141,
      "##onuclear": 5142,
      "##atom": 5143,
      "##role": 5144,
      "##rotr": 5145,
      "##itor": 5146,
      "##itivity": 5147,
      "##inum": 5148,
      "##inonitrile": 5149,
      "infer": 5150,
      "inner": 5151,
      "##ang": 5152,
      "##are": 5153,
      "##reci": 5154,
      "##isopropyl": 5155,
      "recom": 5156,
      "recover": 5157,
      "stob": 5158,
      "stok": 5159,
      "##lytes": 5160,
      "li10": 5161,
      "conver": 5162,
      "constr": 5163,
      "##cell": 5164,
      "alb": 5165,
      "alco": 5166,
      "##urity": 5167,
      "deal": 5168,
      "deins": 5169,
      "##user": 5170,
      "##ifs": 5171,
      "##uth": 5172,
      "##utar": 5173,
      "ch2": 5174,
      "chos": 5175,
      "asbs": 5176,
      "##iration": 5177,
      "solve": 5178,
      "solute": 5179,
      "online": 5180,
      "becoming": 5181,
      "##ibri": 5182,
      "areas": 5183,
      "##opoly": 5184,
      "##ivating": 5185,
      "succ": 5186,
      "supram": 5187,
      "polyind": 5188,
      "polyether": 5189,
      "polyethers": 5190,
      "polyester": 5191,
      "polymorph": 5192,
      "polyvinyl": 5193,
      "whether": 5194,
      "usually": 5195,
      "intermit": 5196,
      "permit": 5197,
      "##odextr": 5198,
      "##ades": 5199,
      "shield": 5200,
      "strain": 5201,
      "##ensitive": 5202,
      "prone": 5203,
      "prussian": 5204,
      "implies": 5205,
      "##traction": 5206,
      "orthor": 5207,
      "mo2": 5208,
      "unf": 5209,
      "uneven": 5210,
      "##phatic": 5211,
      "##phobic": 5212,
      "cyclodextr": 5213,
      "##ethacrylate": 5214,
      "##otive": 5215,
      "##ands": 5216,
      "appreci": 5217,
      "##sio4": 5218,
      "special": 5219,
      "##oxides": 5220,
      "storing": 5221,
      "tempor": 5222,
      "diffuses": 5223,
      "diffused": 5224,
      "overcoming": 5225,
      "rechargeability": 5226,
      "##plate": 5227,
      "##ptes": 5228,
      "parts": 5229,
      "parad": 5230,
      "diol": 5231,
      "intensively": 5232,
      "evs": 5233,
      "investigating": 5234,
      "surround": 5235,
      "surpr": 5236,
      "##encing": 5237,
      "##log": 5238,
      "proven": 5239,
      "characterisation": 5240,
      "signatures": 5241,
      "##isingly": 5242,
      "##ological": 5243,
      "works": 5244,
      "activated": 5245,
      "nonfl": 5246,
      "thanks": 5247,
      "round": 5248,
      "sulfurized": 5249,
      "itself": 5250,
      "indium": 5251,
      "induces": 5252,
      "cm−1": 5253,
      "upy": 5254,
      "quest": 5255,
      "quick": 5256,
      "quart": 5257,
      "quinone": 5258,
      "contained": 5259,
      "litdi": 5260,
      "synthesize": 5261,
      "##point": 5262,
      "contents": 5263,
      "decomposes": 5264,
      "generate": 5265,
      "reviews": 5266,
      "spont": 5267,
      "nanod": 5268,
      "nanow": 5269,
      "achieves": 5270,
      "impede": 5271,
      "hydrophobic": 5272,
      "acidity": 5273,
      "others": 5274,
      "respective": 5275,
      "##ammable": 5276,
      "dma": 5277,
      "except": 5278,
      "multim": 5279,
      "##ipment": 5280,
      "supply": 5281,
      "remained": 5282,
      "visible": 5283,
      "visual": 5284,
      "monom": 5285,
      "monot": 5286,
      "##resh": 5287,
      "##part": 5288,
      "probed": 5289,
      "2006": 5290,
      "2007": 5291,
      "subject": 5292,
      "subjected": 5293,
      "regime": 5294,
      "glycer": 5295,
      "silicide": 5296,
      "##azene": 5297,
      "optimizing": 5298,
      "electricity": 5299,
      "attracting": 5300,
      "output": 5301,
      "pf5": 5302,
      "verified": 5303,
      "equipment": 5304,
      "serves": 5305,
      "50eg": 5306,
      "reality": 5307,
      "realization": 5308,
      "decon": 5309,
      "decades": 5310,
      "correlates": 5311,
      "microbalance": 5312,
      "reacting": 5313,
      "extend": 5314,
      "severe": 5315,
      "suitability": 5316,
      "phosphonium": 5317,
      "viscosities": 5318,
      "lob": 5319,
      "neglig": 5320,
      "utilizes": 5321,
      "##mnsio4": 5322,
      "corrosive": 5323,
      "vanadyl": 5324,
      "glutar": 5325,
      "acetylene": 5326,
      "250": 5327,
      "polarons": 5328,
      "exchanged": 5329,
      "offering": 5330,
      "passive": 5331,
      "passivate": 5332,
      "vec": 5333,
      "##phosphoric": 5334,
      "paired": 5335,
      "consist": 5336,
      "bulky": 5337,
      "stabilized": 5338,
      "mini": 5339,
      "motivated": 5340,
      "motifs": 5341,
      "barriers": 5342,
      "domin": 5343,
      "##teg": 5344,
      "pegdme": 5345,
      "ppn": 5346,
      "crystallinity": 5347,
      "opening": 5348,
      "affinity": 5349,
      "mediator": 5350,
      "describes": 5351,
      "fold": 5352,
      "##tfe": 5353,
      "tunnel": 5354,
      "addressing": 5355,
      "oligomer": 5356,
      "effort": 5357,
      "resistant": 5358,
      "hinders": 5359,
      "sulfonate": 5360,
      "sulfonated": 5361,
      "hexafluoroisopropyl": 5362,
      "##comes": 5363,
      "satis": 5364,
      "reaches": 5365,
      "assembly": 5366,
      "delivered": 5367,
      "radicals": 5368,
      "al2000": 5369,
      "incorporated": 5370,
      "promotes": 5371,
      "promoting": 5372,
      "preparing": 5373,
      "pressing": 5374,
      "deposit": 5375,
      "##ocyan": 5376,
      "equilibri": 5377,
      "gpi": 5378,
      "takes": 5379,
      "taking": 5380,
      "availability": 5381,
      "intrinsically": 5382,
      "bua": 5383,
      "sensitivity": 5384,
      "comprises": 5385,
      "comprised": 5386,
      "predictions": 5387,
      "mitigating": 5388,
      "inhom": 5389,
      "intense": 5390,
      "initiate": 5391,
      "rationalize": 5392,
      "##cidol": 5393,
      "lixsi": 5394,
      "hydroxide": 5395,
      "chevrel": 5396,
      "examples": 5397,
      "competing": 5398,
      "heteronuclear": 5399,
      "minimize": 5400,
      "integration": 5401,
      "constructing": 5402,
      "quantifying": 5403,
      "displayed": 5404,
      "##fepo4f": 5405,
      "dissolving": 5406,
      "melt": 5407,
      "obstacle": 5408,
      "accurately": 5409,
      "rotating": 5410,
      "triglyme": 5411,
      "mgsx": 5412,
      "detection": 5413,
      "##propylene": 5414,
      "marked": 5415,
      "formulations": 5416,
      "coordinate": 5417,
      "emphasis": 5418,
      "plasticizers": 5419,
      "conclude": 5420,
      "methoxyethoxy": 5421,
      "arrhen": 5422,
      "tetraethylene": 5423,
      "dicyanamide": 5424,
      "reasonably": 5425,
      "pamgli": 5426,
      "tools": 5427,
      "mgtfsi2": 5428,
      "##3s4": 5429,
      "thiophene": 5430,
      "anticorrel": 5431,
      "alleviate": 5432,
      "ionomer": 5433,
      "ionogel": 5434,
      "implementation": 5435,
      "grafted": 5436,
      "platinum": 5437,
      "independently": 5438,
      "immob": 5439,
      "observation": 5440,
      "observations": 5441,
      "velocities": 5442,
      "histidine": 5443,
      "mmor": 5444,
      "vacancies": 5445,
      "incompat": 5446,
      "encour": 5447,
      "encounter": 5448,
      "oxalato": 5449,
      "quality": 5450,
      "exceeding": 5451,
      "substrate": 5452,
      "substrates": 5453,
      "consequence": 5454,
      "consequences": 5455,
      "cutoff": 5456,
      "dodsi": 5457,
      "##acetamide": 5458,
      "boosting": 5459,
      "esfm": 5460,
      "unsatisfactory": 5461,
      "conjugated": 5462,
      "lsv": 5463,
      "risk": 5464,
      "conclusion": 5465,
      "compensate": 5466,
      "capture": 5467,
      "hydrated": 5468,
      "microsphere": 5469,
      "synergistic": 5470,
      "gallium": 5471,
      "rarely": 5472,
      "screening": 5473,
      "tensile": 5474,
      "varied": 5475,
      "aliphatic": 5476,
      "##ulfonimide": 5477,
      "orbital": 5478,
      "na2fepo4f": 5479,
      "modulus": 5480,
      "soaked": 5481,
      "removed": 5482,
      "supercapacitors": 5483,
      "benchmark": 5484,
      "recorded": 5485,
      "superconcentrated": 5486,
      "epoxy": 5487,
      "jump": 5488,
      "lp30": 5489,
      "deeper": 5490,
      "external": 5491,
      "interplay": 5492,
      "preliminary": 5493,
      "survey": 5494,
      "hydros": 5495,
      "synchrotr": 5496,
      "quadrupolar": 5497,
      "inspiration": 5498,
      "fluorescence": 5499,
      "pahs": 5500,
      "pulverization": 5501,
      "fluorophosphates": 5502,
      "purpose": 5503,
      "guidelines": 5504,
      "nasicon": 5505,
      "##crystalline": 5506,
      "dxl": 5507,
      "eqcm": 5508,
      "gmf": 5509,
      "gaseous": 5510,
      "igs": 5511,
      "plots": 5512,
      "p3o9": 5513,
      "tbpb": 5514,
      "virt": 5515,
      "##tunately": 5516,
      "recomm": 5517,
      "stoba": 5518,
      "stokes": 5519,
      "deinsert": 5520,
      "chosen": 5521,
      "succinonitrile": 5522,
      "supramolecular": 5523,
      "polyindole": 5524,
      "intermittent": 5525,
      "orthorhombic": 5526,
      "surprisingly": 5527,
      "quartz": 5528,
      "spontane": 5529,
      "glycerol": 5530,
      "negligible": 5531,
      "equilibria": 5532,
      "arrhenius": 5533,
      "pamgliac": 5534,
      "anticorrelations": 5535,
      "synchrotron": 5536,
      "08": 5537,
      "03": 5538,
      "1s": 5539,
      "1co0": 5540,
      "2mn1": 5541,
      "4v": 5542,
      "58": 5543,
      "64": 5544,
      "76": 5545,
      "8000": 5546,
      "8mn0": 5547,
      "amp": 5548,
      "aptes": 5549,
      "apart": 5550,
      "bb": 5551,
      "bh": 5552,
      "bir": 5553,
      "bip": 5554,
      "bsc": 5555,
      "bcm": 5556,
      "bdw": 5557,
      "btfe": 5558,
      "cds": 5559,
      "dich": 5560,
      "dynam": 5561,
      "days": 5562,
      "done": 5563,
      "eel": 5564,
      "eta": 5565,
      "fm": 5566,
      "fes": 5567,
      "fum": 5568,
      "ge": 5569,
      "g3": 5570,
      "gar": 5571,
      "giving": 5572,
      "hu": 5573,
      "hk": 5574,
      "hem": 5575,
      "iod": 5576,
      "kb": 5577,
      "ll": 5578,
      "lg": 5579,
      "lf": 5580,
      "later": 5581,
      "lot": 5582,
      "lfs": 5583,
      "lag": 5584,
      "law": 5585,
      "mw": 5586,
      "mos": 5587,
      "math": 5588,
      "mfe": 5589,
      "mpeg": 5590,
      "nf": 5591,
      "nib": 5592,
      "o6": 5593,
      "pd": 5594,
      "put": 5595,
      "pth": 5596,
      "pap": 5597,
      "pse": 5598,
      "rig": 5599,
      "rod": 5600,
      "rtil": 5601,
      "rings": 5602,
      "sd": 5603,
      "sil": 5604,
      "spp": 5605,
      "site": 5606,
      "sf6": 5607,
      "tpp": 5608,
      "vap": 5609,
      "vo2": 5610,
      "v2o3": 5611,
      "valence": 5612,
      "wal": 5613,
      "wider": 5614,
      "ws2": 5615,
      "xanes": 5616,
      "zb": 5617,
      "##omer": 5618,
      "##oaluminate": 5619,
      "##down": 5620,
      "##ea": 5621,
      "##lined": 5622,
      "##vit": 5623,
      "##vas": 5624,
      "##mal": 5625,
      "##mic": 5626,
      "##mod": 5627,
      "##muth": 5628,
      "##nect": 5629,
      "##ni0": 5630,
      "##side": 5631,
      "##sulph": 5632,
      "##bre": 5633,
      "##bold": 5634,
      "##bead": 5635,
      "##bba": 5636,
      "##iostatic": 5637,
      "##gd": 5638,
      "##gens": 5639,
      "##ying": 5640,
      "##50": 5641,
      "##ape": 5642,
      "##aud": 5643,
      "##ause": 5644,
      "##pass": 5645,
      "##po2": 5646,
      "##pular": 5647,
      "##70": 5648,
      "##uit": 5649,
      "##upt": 5650,
      "##fold": 5651,
      "##cum": 5652,
      "##carbon": 5653,
      "##99": 5654,
      "##1co1": 5655,
      "##zard": 5656,
      "##zo2": 5657,
      "##40": 5658,
      "##−0": 5659,
      "##32": 5660,
      "##atical": 5661,
      "##atility": 5662,
      "##itance": 5663,
      "##lete": 5664,
      "##ints": 5665,
      "##inations": 5666,
      "##inite": 5667,
      "##inities": 5668,
      "##inish": 5669,
      "##eded": 5670,
      "anis": 5671,
      "anolyte": 5672,
      "##alo2": 5673,
      "##ication": 5674,
      "##oratory": 5675,
      "off": 5676,
      "instr": 5677,
      "inversion": 5678,
      "inclus": 5679,
      "##ationic": 5680,
      "tof": 5681,
      "toler": 5682,
      "##oling": 5683,
      "##olving": 5684,
      "rely": 5685,
      "reag": 5686,
      "styr": 5687,
      "stably": 5688,
      "start": 5689,
      "starch": 5690,
      "##ematical": 5691,
      "li1": 5692,
      "li3": 5693,
      "lialo2": 5694,
      "copoly": 5695,
      "coverage": 5696,
      "cooling": 5697,
      "##ules": 5698,
      "connect": 5699,
      "force": 5700,
      "allu": 5701,
      "##urd": 5702,
      "##ury": 5703,
      "##ilay": 5704,
      "dees": 5705,
      "depl": 5706,
      "delo": 5707,
      "proced": 5708,
      "proportion": 5709,
      "proof": 5710,
      "poms": 5711,
      "pof2": 5712,
      "popular": 5713,
      "##ush": 5714,
      "isot": 5715,
      "isocyan": 5716,
      "##ift": 5717,
      "##eline": 5718,
      "##utyl": 5719,
      "chit": 5720,
      "chron": 5721,
      "asymm": 5722,
      "##the": 5723,
      "solar": 5724,
      "once": 5725,
      "beh": 5726,
      "bear": 5727,
      "beam": 5728,
      "becomes": 5729,
      "##iblock": 5730,
      "enl": 5731,
      "enth": 5732,
      "enough": 5733,
      "encaps": 5734,
      "##osensitive": 5735,
      "restr": 5736,
      "resemb": 5737,
      "mao": 5738,
      "maf": 5739,
      "attraction": 5740,
      "expect": 5741,
      "compact": 5742,
      "complim": 5743,
      "compelling": 5744,
      "##acetal": 5745,
      "speek": 5746,
      "disk": 5747,
      "disad": 5748,
      "discre": 5749,
      "distinguish": 5750,
      "##izable": 5751,
      "polycrystalline": 5752,
      "polysulph": 5753,
      "polyacetal": 5754,
      "true": 5755,
      "trip": 5756,
      "triblock": 5757,
      "whose": 5758,
      "usable": 5759,
      "usage": 5760,
      "interests": 5761,
      "##ama": 5762,
      "##amed": 5763,
      "percent": 5764,
      "percol": 5765,
      "shap": 5766,
      "shelf": 5767,
      "sheds": 5768,
      "adh": 5769,
      "##ortem": 5770,
      "##omb": 5771,
      "##ometal": 5772,
      "mgx": 5773,
      "mgmnsio4": 5774,
      "##ulfonate": 5775,
      "moo4": 5776,
      "unw": 5777,
      "unknow": 5778,
      "capacitors": 5779,
      "seven": 5780,
      "seems": 5781,
      "##pher": 5782,
      "##phase": 5783,
      "hamp": 5784,
      "hazard": 5785,
      "##ethanol": 5786,
      "carbonace": 5787,
      "##viated": 5788,
      "##andw": 5789,
      "grade": 5790,
      "##ignment": 5791,
      "##so3": 5792,
      "##ificial": 5793,
      "##ifications": 5794,
      "##cogen": 5795,
      "structurally": 5796,
      "volts": 5797,
      "charges": 5798,
      "store": 5799,
      "template": 5800,
      "aluminate": 5801,
      "redistr": 5802,
      "reducing": 5803,
      "coming": 5804,
      "tep": 5805,
      "neither": 5806,
      "properly": 5807,
      "increment": 5808,
      "abuse": 5809,
      "abbre": 5810,
      "##plored": 5811,
      "potentiostatic": 5812,
      "dict": 5813,
      "diacrylate": 5814,
      "diagn": 5815,
      "dipolar": 5816,
      "dioate": 5817,
      "events": 5818,
      "evolving": 5819,
      "relate": 5820,
      "solids": 5821,
      "applicable": 5822,
      "characterizing": 5823,
      "##branched": 5824,
      "hypo": 5825,
      "amine": 5826,
      "acts": 5827,
      "acting": 5828,
      "nont": 5829,
      "rock": 5830,
      "plane": 5831,
      "sulfuric": 5832,
      "induce": 5833,
      "propulsion": 5834,
      "corro": 5835,
      "corre": 5836,
      "demonstration": 5837,
      "thermosensitive": 5838,
      "challenged": 5839,
      "theories": 5840,
      "##mex": 5841,
      "2020": 5842,
      "imidazol": 5843,
      "cltfsi": 5844,
      "obvi": 5845,
      "object": 5846,
      "modify": 5847,
      "modifies": 5848,
      "##indr": 5849,
      "##hibited": 5850,
      "combines": 5851,
      "combinations": 5852,
      "elong": 5853,
      "elastic": 5854,
      "elabor": 5855,
      "decompose": 5856,
      "sough": 5857,
      "oxygens": 5858,
      "siox": 5859,
      "confinement": 5860,
      "called": 5861,
      "calibr": 5862,
      "fef3": 5863,
      "bismuth": 5864,
      "foundation": 5865,
      "impeded": 5866,
      "goals": 5867,
      "hydrolyt": 5868,
      "hydrochlor": 5869,
      "hydrofluoro": 5870,
      "complexed": 5871,
      "practically": 5872,
      "explos": 5873,
      "##ostic": 5874,
      "infancy": 5875,
      "termed": 5876,
      "terminated": 5877,
      "terminal": 5878,
      "timely": 5879,
      "dmmp": 5880,
      "compositional": 5881,
      "##oxymethyl": 5882,
      "manner": 5883,
      "cav": 5884,
      "operated": 5885,
      "alters": 5886,
      "remov": 5887,
      "esr": 5888,
      "paid": 5889,
      "protons": 5890,
      "positively": 5891,
      "heating": 5892,
      "identity": 5893,
      "identification": 5894,
      "retains": 5895,
      "orders": 5896,
      "licf3": 5897,
      "##parts": 5898,
      "approaching": 5899,
      "2005": 5900,
      "2004": 5901,
      "regulate": 5902,
      "regulating": 5903,
      "130": 5904,
      "increasingly": 5905,
      "outlined": 5906,
      "confirming": 5907,
      "functionality": 5908,
      "functionalized": 5909,
      "pfsa": 5910,
      "verify": 5911,
      "##ogram": 5912,
      "condensation": 5913,
      "seriously": 5914,
      "separate": 5915,
      "century": 5916,
      "##lishing": 5917,
      "microf": 5918,
      "microporous": 5919,
      "microbead": 5920,
      "reactant": 5921,
      "influenced": 5922,
      "influencing": 5923,
      "loc": 5924,
      "utilize": 5925,
      "25eg": 5926,
      "poorly": 5927,
      "striking": 5928,
      "associations": 5929,
      "hfes": 5930,
      "express": 5931,
      "negatively": 5932,
      "smallest": 5933,
      "relaxometry": 5934,
      "glassy": 5935,
      "classic": 5936,
      "classified": 5937,
      "##avorable": 5938,
      "xrf": 5939,
      "efficiently": 5940,
      "benefit": 5941,
      "##ethoxysilane": 5942,
      "prevalent": 5943,
      "advancement": 5944,
      "##ager": 5945,
      "##ahex": 5946,
      "ultras": 5947,
      "motivate": 5948,
      "barely": 5949,
      "domains": 5950,
      "majority": 5951,
      "110": 5952,
      "ppab": 5953,
      "crystallization": 5954,
      "phenyl": 5955,
      "driving": 5956,
      "fluoroalk": 5957,
      "describing": 5958,
      "crystallog": 5959,
      "simply": 5960,
      "baseline": 5961,
      "sns2": 5962,
      "tune": 5963,
      "suppresses": 5964,
      "circum": 5965,
      "natfsi": 5966,
      "naturally": 5967,
      "yielded": 5968,
      "yielding": 5969,
      "sulfones": 5970,
      "linixmn": 5971,
      "facilitates": 5972,
      "hexafluoropropylene": 5973,
      "dicationic": 5974,
      "instance": 5975,
      "cu1co1": 5976,
      "reaching": 5977,
      "counterparts": 5978,
      "macroscopic": 5979,
      "distance": 5980,
      "blended": 5981,
      "breakdown": 5982,
      "##cont": 5983,
      "dioxahex": 5984,
      "##ilyl": 5985,
      "inhibits": 5986,
      "inhibited": 5987,
      "weakly": 5988,
      "originated": 5989,
      "origins": 5990,
      "representing": 5991,
      "##ohal": 5992,
      "##ocarbon": 5993,
      "##nessite": 5994,
      "grids": 5995,
      "preventing": 5996,
      "gpc": 5997,
      "organohal": 5998,
      "involve": 5999,
      "helpful": 6000,
      "##yanth": 6001,
      "et3n": 6002,
      "traditionally": 6003,
      "167": 6004,
      "analogous": 6005,
      "simultaneous": 6006,
      "298": 6007,
      "liga": 6008,
      "##boronic": 6009,
      "cheaper": 6010,
      "dispersed": 6011,
      "dispersion": 6012,
      "minimum": 6013,
      "relationships": 6014,
      "biopoly": 6015,
      "edx": 6016,
      "radii": 6017,
      "carboxymethyl": 6018,
      "protonated": 6019,
      "broadening": 6020,
      "accounted": 6021,
      "integrity": 6022,
      "gpe3": 6023,
      "recycl": 6024,
      "construction": 6025,
      "fract": 6026,
      "mesocarbon": 6027,
      "explaining": 6028,
      "advantageous": 6029,
      "cvs": 6030,
      "strengths": 6031,
      "undergoes": 6032,
      "dissolves": 6033,
      "identifying": 6034,
      "meaning": 6035,
      "accumulated": 6036,
      "replacement": 6037,
      "ahbold": 6038,
      "pgs": 6039,
      "accessibility": 6040,
      "desired": 6041,
      "elucidated": 6042,
      "370": 6043,
      "fiber": 6044,
      "trimethylsilyl": 6045,
      "difficulty": 6046,
      "difficulties": 6047,
      "uniformly": 6048,
      "dimerization": 6049,
      "emphasizes": 6050,
      "nanocomposites": 6051,
      "believed": 6052,
      "laboratory": 6053,
      "lengths": 6054,
      "##yclic": 6055,
      "conjunction": 6056,
      "graded": 6057,
      "numerical": 6058,
      "array": 6059,
      "benzo": 6060,
      "reasonable": 6061,
      "creating": 6062,
      "anchored": 6063,
      "anchoring": 6064,
      "proceeded": 6065,
      "extracts": 6066,
      "sufficiently": 6067,
      "validated": 6068,
      "heterostruct": 6069,
      "ptma": 6070,
      "alleviating": 6071,
      "isolation": 6072,
      "implemented": 6073,
      "graft": 6074,
      "cosolvent": 6075,
      "lidfp": 6076,
      "tailored": 6077,
      "incomplete": 6078,
      "receiving": 6079,
      "traces": 6080,
      "traced": 6081,
      "oxalate": 6082,
      "descript": 6083,
      "qualitative": 6084,
      "comparatively": 6085,
      "rendering": 6086,
      "triggered": 6087,
      "mimet": 6088,
      "octyl": 6089,
      "##pegmex": 6090,
      "tracking": 6091,
      "hyperbranched": 6092,
      "esfms": 6093,
      "dramatic": 6094,
      "dramatically": 6095,
      "fluidity": 6096,
      "##clear": 6097,
      "thoroughly": 6098,
      "stimulated": 6099,
      "deviation": 6100,
      "attained": 6101,
      "sheath": 6102,
      "adjustment": 6103,
      "oriented": 6104,
      "acquire": 6105,
      "avenue": 6106,
      "avenues": 6107,
      "entirely": 6108,
      "eliminating": 6109,
      "community": 6110,
      "bottlenecks": 6111,
      "aletcl2": 6112,
      "gics": 6113,
      "h2so4": 6114,
      "mlcc": 6115,
      "mild": 6116,
      "rationally": 6117,
      "attempt": 6118,
      "energetically": 6119,
      "nondestructive": 6120,
      "roadblock": 6121,
      "2021": 6122,
      "occupied": 6123,
      "fluctuations": 6124,
      "deficiency": 6125,
      "mpyrfsi": 6126,
      "automotive": 6127,
      "sharply": 6128,
      "narrowing": 6129,
      "atmospher": 6130,
      "dihydroxyanth": 6131,
      "world": 6132,
      "##benzene": 6133,
      "2pause": 6134,
      "fulfill": 6135,
      "hpg": 6136,
      "penetr": 6137,
      "inevit": 6138,
      "cooperat": 6139,
      "deuterated": 6140,
      "reserves": 6141,
      "residual": 6142,
      "polypyrrole": 6143,
      "perfluorinated": 6144,
      "unusual": 6145,
      "diameters": 6146,
      "noticeable": 6147,
      "deterioration": 6148,
      "triflate": 6149,
      "participate": 6150,
      "scaffold": 6151,
      "scavenging": 6152,
      "scenario": 6153,
      "displacements": 6154,
      "intriguing": 6155,
      "endows": 6156,
      "anticipated": 6157,
      "hierarchical": 6158,
      "zwitterionic": 6159,
      "bcas": 6160,
      "f2po2": 6161,
      "hnbr": 6162,
      "schem": 6163,
      "target": 6164,
      "alcohol": 6165,
      "unfavorable": 6166,
      "temporal": 6167,
      "surrounding": 6168,
      "nonflammable": 6169,
      "monomethyl": 6170,
      "glutaric": 6171,
      "dominate": 6172,
      "satisfy": 6173,
      "immobil": 6174,
      "encountered": 6175,
      "recommended": 6176,
      "deinsertion": 6177,
      "bbes": 6178,
      "birnessite": 6179,
      "bscb": 6180,
      "dynamical": 6181,
      "eels": 6182,
      "fumed": 6183,
      "huge": 6184,
      "hkust": 6185,
      "hema": 6186,
      "lgps": 6187,
      "lfp": 6188,
      "mos2": 6189,
      "mathematical": 6190,
      "nfnscs": 6191,
      "papers": 6192,
      "pseud": 6193,
      "rigid": 6194,
      "sdpn": 6195,
      "sppo": 6196,
      "vapor": 6197,
      "zbbs": 6198,
      "anisotropic": 6199,
      "instrum": 6200,
      "tolerance": 6201,
      "alluaud": 6202,
      "deploy": 6203,
      "delocal": 6204,
      "disadvan": 6205,
      "polysulphide": 6206,
      "percentage": 6207,
      "unknown": 6208,
      "carbonaceous": 6209,
      "redistrib": 6210,
      "abbreviated": 6211,
      "diagnostic": 6212,
      "hypoth": 6213,
      "sought": 6214,
      "removal": 6215,
      "licf3so3": 6216,
      "circumv": 6217,
      "linixmny": 6218,
      "dioxahexane": 6219,
      "et3nhcl": 6220,
      "04": 6221,
      "1mn0": 6222,
      "2h": 6223,
      "2−": 6224,
      "2me": 6225,
      "2co0": 6226,
      "320": 6227,
      "5v": 6228,
      "5o2": 6229,
      "5mn1": 6230,
      "69": 6231,
      "63": 6232,
      "6mn0": 6233,
      "77": 6234,
      "93": 6235,
      "az": 6236,
      "aat": 6237,
      "big": 6238,
      "bta": 6239,
      "bqds": 6240,
      "cx": 6241,
      "cc": 6242,
      "cat": 6243,
      "cyl": 6244,
      "crow": 6245,
      "c2o4": 6246,
      "ds": 6247,
      "div": 6248,
      "dam": 6249,
      "dark": 6250,
      "fig": 6251,
      "fine": 6252,
      "fra": 6253,
      "fron": 6254,
      "foss": 6255,
      "fcn": 6256,
      "feds": 6257,
      "fau": 6258,
      "fair": 6259,
      "fresh": 6260,
      "gs": 6261,
      "gives": 6262,
      "gold": 6263,
      "ho": 6264,
      "hc": 6265,
      "her": 6266,
      "hous": 6267,
      "hso": 6268,
      "hme": 6269,
      "hces": 6270,
      "hurd": 6271,
      "ib": 6272,
      "icl": 6273,
      "ign": 6274,
      "kn": 6275,
      "kj": 6276,
      "kvpo4f": 6277,
      "ktfsa": 6278,
      "la": 6279,
      "lph": 6280,
      "lever": 6281,
      "m4": 6282,
      "mal": 6283,
      "mid": 6284,
      "mich": 6285,
      "mature": 6286,
      "mwh": 6287,
      "np": 6288,
      "nor": 6289,
      "ncm": 6290,
      "named": 6291,
      "oc": 6292,
      "ow": 6293,
      "oil": 6294,
      "oac": 6295,
      "ovi": 6296,
      "otf": 6297,
      "ps": 6298,
      "p5": 6299,
      "ple": 6300,
      "pem": 6301,
      "psi": 6302,
      "p12": 6303,
      "push": 6304,
      "rm": 6305,
      "rn": 6306,
      "rz": 6307,
      "ras": 6308,
      "rab": 6309,
      "rfb": 6310,
      "roles": 6311,
      "rmb": 6312,
      "sco": 6313,
      "sms": 6314,
      "spher": 6315,
      "ten": 6316,
      "tort": 6317,
      "taf": 6318,
      "tms": 6319,
      "ut": 6320,
      "ubi": 6321,
      "vast": 6322,
      "vfb": 6323,
      "wile": 6324,
      "wse2": 6325,
      "wave": 6326,
      "xs": 6327,
      "xas": 6328,
      "−1": 6329,
      "∼0": 6330,
      "∼8": 6331,
      "≈1": 6332,
      "##oamp": 6333,
      "##ooh": 6334,
      "##omers": 6335,
      "##dt": 6336,
      "##dsi": 6337,
      "##dra": 6338,
      "##equ": 6339,
      "##eled": 6340,
      "##vable": 6341,
      "##vice": 6342,
      "##veng": 6343,
      "##man": 6344,
      "##ming": 6345,
      "##mend": 6346,
      "##nmr": 6347,
      "##tt": 6348,
      "##tz": 6349,
      "##sonal": 6350,
      "##bo": 6351,
      "##be": 6352,
      "##bu": 6353,
      "##bated": 6354,
      "##butyl": 6355,
      "##ix": 6356,
      "##ict": 6357,
      "##iar": 6358,
      "##ias": 6359,
      "##iating": 6360,
      "##ga": 6361,
      "##gically": 6362,
      "##ycle": 6363,
      "##500": 6364,
      "##ael": 6365,
      "##aff": 6366,
      "##aight": 6367,
      "##pd": 6368,
      "##py": 6369,
      "##p3s": 6370,
      "##pancies": 6371,
      "##xil": 6372,
      "##xine": 6373,
      "##6br": 6374,
      "##ho": 6375,
      "##h2": 6376,
      "##uly": 6377,
      "##uples": 6378,
      "##f5": 6379,
      "##cor": 6380,
      "##carbonate": 6381,
      "##cycl": 6382,
      "##90": 6383,
      "##96": 6384,
      "##18": 6385,
      "##2s": 6386,
      "##49": 6387,
      "##−5": 6388,
      "##−x": 6389,
      "##ways": 6390,
      "##w30": 6391,
      "##ware": 6392,
      "##3bs": 6393,
      "##3li": 6394,
      "##ero": 6395,
      "##erts": 6396,
      "##erative": 6397,
      "thous": 6398,
      "##onates": 6399,
      "##atase": 6400,
      "##esy": 6401,
      "##esion": 6402,
      "##esized": 6403,
      "##ctx": 6404,
      "##rove": 6405,
      "##rovers": 6406,
      "##itous": 6407,
      "##inning": 6408,
      "##inhibited": 6409,
      "##enient": 6410,
      "anti": 6411,
      "anne": 6412,
      "anatase": 6413,
      "##al0": 6414,
      "##alcl3": 6415,
      "##icated": 6416,
      "##orts": 6417,
      "##organ": 6418,
      "inform": 6419,
      "inhib": 6420,
      "##anion": 6421,
      "##anth": 6422,
      "##arr": 6423,
      "##aries": 6424,
      "##arrier": 6425,
      "##entary": 6426,
      "##iss": 6427,
      "##isaged": 6428,
      "##ash": 6429,
      "##asial": 6430,
      "##asma": 6431,
      "##eti": 6432,
      "tolu": 6433,
      "##umbic": 6434,
      "##olid": 6435,
      "##igm": 6436,
      "##ident": 6437,
      "##idged": 6438,
      "rev": 6439,
      "reco": 6440,
      "repro": 6441,
      "ready": 6442,
      "revolution": 6443,
      "rearr": 6444,
      "stre": 6445,
      "stem": 6446,
      "stop": 6447,
      "staging": 6448,
      "libr": 6449,
      "cour": 6450,
      "covers": 6451,
      "co3s4": 6452,
      "couples": 6453,
      "##ulates": 6454,
      "##stoichi": 6455,
      "cong": 6456,
      "convers": 6457,
      "conformation": 6458,
      "##mps": 6459,
      "fortunately": 6460,
      "alt": 6461,
      "always": 6462,
      "##uric": 6463,
      "##ilation": 6464,
      "##ilies": 6465,
      "##iline": 6466,
      "##illed": 6467,
      "deform": 6468,
      "deformation": 6469,
      "proport": 6470,
      "po2": 6471,
      "pose": 6472,
      "pof3": 6473,
      "withstand": 6474,
      "withdra": 6475,
      "##odal": 6476,
      "##odiation": 6477,
      "##usive": 6478,
      "##usias": 6479,
      "isob": 6480,
      "##elt": 6481,
      "##uting": 6482,
      "chcl": 6483,
      "ch3co": 6484,
      "as3bs": 6485,
      "##irane": 6486,
      "##uction": 6487,
      "##iments": 6488,
      "##imolar": 6489,
      "##imension": 6490,
      "beg": 6491,
      "##aporation": 6492,
      "entr": 6493,
      "##osity": 6494,
      "resting": 6495,
      "##peridinium": 6496,
      "##opes": 6497,
      "##quitous": 6498,
      "atta": 6499,
      "atmc": 6500,
      "exother": 6501,
      "extinguish": 6502,
      "compress": 6503,
      "##aced": 6504,
      "disc": 6505,
      "metast": 6506,
      "polyox": 6507,
      "polygly": 6508,
      "truly": 6509,
      "why": 6510,
      "whis": 6511,
      "##forward": 6512,
      "##yloxy": 6513,
      "##amin": 6514,
      "##amino": 6515,
      "weights": 6516,
      "perme": 6517,
      "personal": 6518,
      "##adays": 6519,
      "##romell": 6520,
      "meant": 6521,
      "##ffer": 6522,
      "##tailing": 6523,
      "shape": 6524,
      "stress": 6525,
      "straight": 6526,
      "##pped": 6527,
      "adn": 6528,
      "##ensions": 6529,
      "difluorinated": 6530,
      "##omaterial": 6531,
      "##omains": 6532,
      "##ommod": 6533,
      "imply": 6534,
      "implying": 6535,
      "imperative": 6536,
      "##anted": 6537,
      "solving": 6538,
      "uncover": 6539,
      "unclear": 6540,
      "uninhibited": 6541,
      "capacitive": 6542,
      "capacitance": 6543,
      "seem": 6544,
      "transverse": 6545,
      "hauser": 6546,
      "##ethamine": 6547,
      "##ethyle": 6548,
      "grign": 6549,
      "formate": 6550,
      "formulated": 6551,
      "apply": 6552,
      "##sof": 6553,
      "polymerized": 6554,
      "polymerizable": 6555,
      "acceptor": 6556,
      "specially": 6557,
      "oxirane": 6558,
      "##oxic": 6559,
      "##co2": 6560,
      "##cozo2": 6561,
      "##thermal": 6562,
      "sulfoxide": 6563,
      "volta": 6564,
      "stored": 6565,
      "phmg": 6566,
      "desodiation": 6567,
      "undersc": 6568,
      "##licit": 6569,
      "methoxide": 6570,
      "##culiar": 6571,
      "preser": 6572,
      "analysed": 6573,
      "diffusometry": 6574,
      "abilities": 6575,
      "potentiod": 6576,
      "divers": 6577,
      "dioxide": 6578,
      "diverse": 6579,
      "diphenyl": 6580,
      "intensive": 6581,
      "evaporation": 6582,
      "##pectin": 6583,
      "surge": 6584,
      "surpass": 6585,
      "##urrent": 6586,
      "##lomer": 6587,
      "na5": 6588,
      "naq": 6589,
      "naoh": 6590,
      "proving": 6591,
      "amin": 6592,
      "amyl": 6593,
      "amino": 6594,
      "activities": 6595,
      "activate": 6596,
      "nonstoichi": 6597,
      "rough": 6598,
      "routes": 6599,
      "plasma": 6600,
      "placed": 6601,
      "indire": 6602,
      "ethane": 6603,
      "depict": 6604,
      "poses": 6605,
      "costly": 6606,
      "processing": 6607,
      "resonant": 6608,
      "propanes": 6609,
      "propag": 6610,
      "lec": 6611,
      "lean": 6612,
      "leap": 6613,
      "lifsa": 6614,
      "modest": 6615,
      "modern": 6616,
      "modulation": 6617,
      "modifications": 6618,
      "coulomb": 6619,
      "peculiar": 6620,
      "##sulfur": 6621,
      "102": 6622,
      "microw": 6623,
      "dimethacrylate": 6624,
      "diminish": 6625,
      "dimensions": 6626,
      "##cluding": 6627,
      "##akis": 6628,
      "controvers": 6629,
      "transfers": 6630,
      "generations": 6631,
      "generating": 6632,
      "so4": 6633,
      "so3": 6634,
      "discusses": 6635,
      "methodologies": 6636,
      "##mitfsi": 6637,
      "organics": 6638,
      "afterward": 6639,
      "productivity": 6640,
      "nanometric": 6641,
      "nanomaterial": 6642,
      "memo": 6643,
      "includes": 6644,
      "included": 6645,
      "obtaining": 6646,
      "sodiation": 6647,
      "interphasial": 6648,
      "situation": 6649,
      "##luorination": 6650,
      "lipsi": 6651,
      "achievable": 6652,
      "impediments": 6653,
      "goes": 6654,
      "goal": 6655,
      "hydrothermal": 6656,
      "##lier": 6657,
      "ila": 6658,
      "ilas": 6659,
      "##ordinary": 6660,
      "methylated": 6661,
      "functioning": 6662,
      "envision": 6663,
      "envisaged": 6664,
      "consideration": 6665,
      "reductively": 6666,
      "exceeds": 6667,
      "strategic": 6668,
      "multitude": 6669,
      "scaveng": 6670,
      "optical": 6671,
      "##ailing": 6672,
      "manif": 6673,
      "link": 6674,
      "altered": 6675,
      "altering": 6676,
      "supports": 6677,
      "##ishes": 6678,
      "esw": 6679,
      "esters": 6680,
      "paves": 6681,
      "pamps": 6682,
      "calculate": 6683,
      "kinetically": 6684,
      "degrade": 6685,
      "identifies": 6686,
      "retain": 6687,
      "retaining": 6688,
      "month": 6689,
      "superionic": 6690,
      "license": 6691,
      "probing": 6692,
      "probably": 6693,
      "190": 6694,
      "19f": 6695,
      "1991": 6696,
      "1970": 6697,
      "regions": 6698,
      "regulation": 6699,
      "alternate": 6700,
      "suggestions": 6701,
      "pvbba": 6702,
      "libeti": 6703,
      "emic": 6704,
      "emission": 6705,
      "tetrakis": 6706,
      "security": 6707,
      "outside": 6708,
      "evolutions": 6709,
      "##yridine": 6710,
      "pfpe": 6711,
      "pfpmc": 6712,
      "lowering": 6713,
      "equiv": 6714,
      "equations": 6715,
      "equimolar": 6716,
      "service": 6717,
      "50s": 6718,
      "ago": 6719,
      "agent": 6720,
      "alkoxy": 6721,
      "alkoxide": 6722,
      "microcaps": 6723,
      "dimethylacetamide": 6724,
      "reacted": 6725,
      "extension": 6726,
      "convenient": 6727,
      "suited": 6728,
      "phosphorous": 6729,
      "phosphoric": 6730,
      "phosphazene": 6731,
      "nanof": 6732,
      "nanocon": 6733,
      "greatest": 6734,
      "borates": 6735,
      "conditioning": 6736,
      "##ounced": 6737,
      "##scn": 6738,
      "##upled": 6739,
      "attentions": 6740,
      "trifluoromethans": 6741,
      "dissociate": 6742,
      "doi": 6743,
      "strict": 6744,
      "passivated": 6745,
      "hfe": 6746,
      "accommod": 6747,
      "derive": 6748,
      "synthesised": 6749,
      "simulate": 6750,
      "simulated": 6751,
      "voltammogram": 6752,
      "dopants": 6753,
      "thfpb": 6754,
      "derivat": 6755,
      "derivative": 6756,
      "1500": 6757,
      "bring": 6758,
      "brings": 6759,
      "bridged": 6760,
      "flakes": 6761,
      "xrpd": 6762,
      "regardless": 6763,
      "prevailing": 6764,
      "mn3": 6765,
      "##ahedral": 6766,
      "stabilizes": 6767,
      "spectroscopically": 6768,
      "resultant": 6769,
      "centered": 6770,
      "ultral": 6771,
      "atomistic": 6772,
      "blende": 6773,
      "demanding": 6774,
      "pegdma": 6775,
      "hexyl": 6776,
      "corresponds": 6777,
      "1700": 6778,
      "partly": 6779,
      "crystallinities": 6780,
      "trifluoromethanesulfonimide": 6781,
      "old": 6782,
      "selecting": 6783,
      "fabricate": 6784,
      "dry": 6785,
      "drive": 6786,
      "drastic": 6787,
      "fluoroprop": 6788,
      "##12i": 6789,
      "gasoline": 6790,
      "publishing": 6791,
      "##inuous": 6792,
      "absorb": 6793,
      "simpl": 6794,
      "basing": 6795,
      "slmbs": 6796,
      "sns": 6797,
      "addresses": 6798,
      "suppression": 6799,
      "emimcl": 6800,
      "releasing": 6801,
      "sulfonic": 6802,
      "sulfonium": 6803,
      "sulfonamide": 6804,
      "8046": 6805,
      "color": 6806,
      "columbic": 6807,
      "localized": 6808,
      "counterion": 6809,
      "assemblies": 6810,
      "delivering": 6811,
      "aiming": 6812,
      "agglomer": 6813,
      "raises": 6814,
      "distort": 6815,
      "esss": 6816,
      "microstructural": 6817,
      "blending": 6818,
      "apc": 6819,
      "promoted": 6820,
      "comparisons": 6821,
      "substitutes": 6822,
      "diluents": 6823,
      "##ogenous": 6824,
      "entities": 6825,
      "occurrence": 6826,
      "prevented": 6827,
      "produces": 6828,
      "acrylic": 6829,
      "acrylamido": 6830,
      "maintained": 6831,
      "buffer": 6832,
      "piama": 6833,
      "pyrene": 6834,
      "concurrent": 6835,
      "contributing": 6836,
      "overviewed": 6837,
      "consumed": 6838,
      "consuming": 6839,
      "trifluoromethylsulfon": 6840,
      "collected": 6841,
      "essentially": 6842,
      "mitigation": 6843,
      "mitigated": 6844,
      "mitigates": 6845,
      "broken": 6846,
      "benign": 6847,
      "pbas": 6848,
      "pbdt": 6849,
      "purified": 6850,
      "tremend": 6851,
      "versatility": 6852,
      "##pyridine": 6853,
      "angular": 6854,
      "nearby": 6855,
      "initiates": 6856,
      "180": 6857,
      "favor": 6858,
      "##imeter": 6859,
      "triphenyl": 6860,
      "discussing": 6861,
      "compete": 6862,
      "competition": 6863,
      "adsor": 6864,
      "heterogeneous": 6865,
      "minimizing": 6866,
      "largest": 6867,
      "lasting": 6868,
      "nowadays": 6869,
      "precision": 6870,
      "li2s8": 6871,
      "relevance": 6872,
      "hardly": 6873,
      "hmdsbr": 6874,
      "meeting": 6875,
      "accelerating": 6876,
      "electrodepos": 6877,
      "manganate": 6878,
      "crosslinker": 6879,
      "drawing": 6880,
      "fractions": 6881,
      "pyromell": 6882,
      "##heets": 6883,
      "discovered": 6884,
      "undergoing": 6885,
      "guided": 6886,
      "distinctive": 6887,
      "cpmas": 6888,
      "##22fsi": 6889,
      "reasons": 6890,
      "adoption": 6891,
      "##triethamine": 6892,
      "propylpyrrolidinium": 6893,
      "fuels": 6894,
      "tman": 6895,
      "tmdsi": 6896,
      "accessible": 6897,
      "individually": 6898,
      "detector": 6899,
      "irreversibility": 6900,
      "##electrode": 6901,
      "constitute": 6902,
      "constitutes": 6903,
      "consistently": 6904,
      "ncarrier": 6905,
      "synergy": 6906,
      "synergic": 6907,
      "dimeric": 6908,
      "emphasized": 6909,
      "tetrafluoropropyl": 6910,
      "tetragonal": 6911,
      "nanostructure": 6912,
      "clustering": 6913,
      "physico": 6914,
      "al2cl6br": 6915,
      "migrate": 6916,
      "fix": 6917,
      "labeled": 6918,
      "vo9": 6919,
      "voids": 6920,
      "covered": 6921,
      "alph3": 6922,
      "methoxyethyl": 6923,
      "arrays": 6924,
      "saturation": 6925,
      "benzimidazole": 6926,
      "drawn": 6927,
      "creative": 6928,
      "napp": 6929,
      "swcn": 6930,
      "swelling": 6931,
      "scales": 6932,
      "turns": 6933,
      "tendency": 6934,
      "covalently": 6935,
      "boundaries": 6936,
      "industry": 6937,
      "elimination": 6938,
      "nanosheets": 6939,
      "illustrate": 6940,
      "complemented": 6941,
      "establishes": 6942,
      "heteroatom": 6943,
      "families": 6944,
      "onsager": 6945,
      "polyelectrolytes": 6946,
      "moiety": 6947,
      "spatially": 6948,
      "titanate": 6949,
      "450": 6950,
      "histor": 6951,
      "nh4scn": 6952,
      "pattern": 6953,
      "terpolymer": 6954,
      "terpyridine": 6955,
      "tailoring": 6956,
      "##flakes": 6957,
      "unexplored": 6958,
      "assessed": 6959,
      "renders": 6960,
      "trigger": 6961,
      "disproportionate": 6962,
      "mxenes": 6963,
      "nascent": 6964,
      "nacl": 6965,
      "octahedral": 6966,
      "stacked": 6967,
      "stacking": 6968,
      "excessive": 6969,
      "tracked": 6970,
      "nanotubes": 6971,
      "ultimate": 6972,
      "precursors": 6973,
      "cf3so3li": 6974,
      "unsatur": 6975,
      "fillers": 6976,
      "harness": 6977,
      "modeled": 6978,
      "mossy": 6979,
      "rheology": 6980,
      "rheological": 6981,
      "conclusions": 6982,
      "deviations": 6983,
      "compromising": 6984,
      "difluorophosphate": 6985,
      "orientation": 6986,
      "movements": 6987,
      "borohydride": 6988,
      "boroxine": 6989,
      "hydration": 6990,
      "assumed": 6991,
      "building": 6992,
      "eliminate": 6993,
      "restricted": 6994,
      "communication": 6995,
      "001": 6996,
      "bends": 6997,
      "bending": 6998,
      "dedicated": 6999,
      "hrms": 7000,
      "hrtem": 7001,
      "pentafluoro": 7002,
      "rationale": 7003,
      "tertiary": 7004,
      "wettability": 7005,
      "##dwide": 7006,
      "li2ohcl": 7007,
      "ensure": 7008,
      "attempts": 7009,
      "shorter": 7010,
      "shortage": 7011,
      "energetic": 7012,
      "undes": 7013,
      "segmental": 7014,
      "sequence": 7015,
      "sequential": 7016,
      "experience": 7017,
      "experiences": 7018,
      "2023": 7019,
      "automatic": 7020,
      "carboxylic": 7021,
      "reconstruction": 7022,
      "atmosphere": 7023,
      "vulcanization": 7024,
      "disordered": 7025,
      "dihydroxy": 7026,
      "worldwide": 7027,
      "auxil": 7028,
      "eei": 7029,
      "fitting": 7030,
      "mchs": 7031,
      "pursuit": 7032,
      "tis2": 7033,
      "decoupling": 7034,
      "decoupled": 7035,
      "polyphosphonates": 7036,
      "salicylo": 7037,
      "salicylato": 7038,
      "obeys": 7039,
      "tetramethylammonium": 7040,
      "extraordinary": 7041,
      "hydroxyethyl": 7042,
      "adsorbed": 7043,
      "precisely": 7044,
      "mesoporous": 7045,
      "pyrophosphate": 7046,
      "governed": 7047,
      "errors": 7048,
      "exploitation": 7049,
      "categories": 7050,
      "aaib": 7051,
      "balance": 7052,
      "humidity": 7053,
      "hopeful": 7054,
      "lamell": 7055,
      "v2ctx": 7056,
      "wo3−x": 7057,
      "inferior": 7058,
      "##angement": 7059,
      "li10p3s": 7060,
      "constrain": 7061,
      "shielding": 7062,
      "unevenly": 7063,
      "cyclodextrin": 7064,
      "paradigm": 7065,
      "nanodomains": 7066,
      "nanowire": 7067,
      "multimodal": 7068,
      "monotonic": 7069,
      "deconvolution": 7070,
      "inhomogeneous": 7071,
      "methoxyethoxyethoxy": 7072,
      "hydrosilation": 7073,
      "virtue": 7074,
      "spontaneously": 7075,
      "ampl": 7076,
      "bipyridine": 7077,
      "geometry": 7078,
      "lagp": 7079,
      "pdmitfsi": 7080,
      "v2o3cl2": 7081,
      "##vasive": 7082,
      "li3po4": 7083,
      "copolyether": 7084,
      "##ilayered": 7085,
      "procedure": 7086,
      "chronoamp": 7087,
      "asymmetric": 7088,
      "behind": 7089,
      "bearing": 7090,
      "enthusias": 7091,
      "mafteg": 7092,
      "complimentary": 7093,
      "discrepancies": 7094,
      "distinguished": 7095,
      "percolation": 7096,
      "adhesion": 7097,
      "unwanted": 7098,
      "hampered": 7099,
      "hazards": 7100,
      "##cogenide": 7101,
      "nontoxic": 7102,
      "correct": 7103,
      "imidazolate": 7104,
      "obvious": 7105,
      "objective": 7106,
      "##indrical": 7107,
      "elongation": 7108,
      "explosion": 7109,
      "located": 7110,
      "strikingly": 7111,
      "expressions": 7112,
      "ultrasonic": 7113,
      "crystallograph": 7114,
      "organohaloaluminate": 7115,
      "involvement": 7116,
      "1672": 7117,
      "biopolymer": 7118,
      "heterostructures": 7119,
      "roadblocks": 7120,
      "atmospheric": 7121,
      "penetration": 7122,
      "inevitable": 7123,
      "f2po2h": 7124,
      "scheme": 7125,
      "immobilized": 7126,
      "instrument": 7127,
      "alluaudite": 7128,
      "delocalization": 7129,
      "disadvantages": 7130,
      "hypothesized": 7131,
      "circumvent": 7132,
      "linixmnycozo2": 7133,
      "2mecn": 7134,
      "cx2": 7135,
      "cylindrical": 7136,
      "crown": 7137,
      "damage": 7138,
      "frag": 7139,
      "fossil": 7140,
      "fcntf": 7141,
      "hsoi": 7142,
      "ibn": 7143,
      "ignored": 7144,
      "lphc": 7145,
      "michael": 7146,
      "ncm90": 7147,
      "own": 7148,
      "p5w30": 7149,
      "p1222fsi": 7150,
      "pushing": 7151,
      "rasb": 7152,
      "smss": 7153,
      "tortu": 7154,
      "tafel": 7155,
      "tmsp": 7156,
      "ubiquitous": 7157,
      "wiley": 7158,
      "thousands": 7159,
      "inhibition": 7160,
      "toluene": 7161,
      "library": 7162,
      "course": 7163,
      "proportions": 7164,
      "withdrawing": 7165,
      "##imensional": 7166,
      "extinguishing": 7167,
      "metastable": 7168,
      "polyglycidol": 7169,
      "straightforward": 7170,
      "##ethylether": 7171,
      "grignard": 7172,
      "phmgcl": 7173,
      "potentiodynamic": 7174,
      "nonstoichiometric": 7175,
      "roughly": 7176,
      "indirect": 7177,
      "microwave": 7178,
      "scavenger": 7179,
      "microcapsules": 7180,
      "nanoconf": 7181,
      "accommodate": 7182,
      "fluoropropane": 7183,
      "tremendous": 7184,
      "pyromellitic": 7185,
      "al2cl6br−": 7186,
      "auxiliary": 7187,
      "li10p3s12i": 7188,
      "chronoamper": 7189,
      "enthusiasm": 7190,
      "0v": 7191,
      "02": 7192,
      "012": 7193,
      "091": 7194,
      "0gd": 7195,
      "1in": 7196,
      "1st": 7197,
      "2acryl": 7198,
      "2mo": 7199,
      "220": 7200,
      "3c": 7201,
      "39": 7202,
      "41": 7203,
      "4000": 7204,
      "5c": 7205,
      "54": 7206,
      "53": 7207,
      "5o4": 7208,
      "5mn0": 7209,
      "5x10": 7210,
      "6li": 7211,
      "6000": 7212,
      "79": 7213,
      "88": 7214,
      "89": 7215,
      "800": 7216,
      "820": 7217,
      "aem": 7218,
      "ace": 7219,
      "age": 7220,
      "aab": 7221,
      "aver": 7222,
      "aip": 7223,
      "aug": 7224,
      "aems": 7225,
      "bn": 7226,
      "bg": 7227,
      "bx": 7228,
      "bur": 7229,
      "bod": 7230,
      "bif": 7231,
      "bim": 7232,
      "bph": 7233,
      "bistr": 7234,
      "bivalent": 7235,
      "bandw": 7236,
      "bilayered": 7237,
      "c4": 7238,
      "ces": 7239,
      "cis": 7240,
      "cel": 7241,
      "cpe": 7242,
      "civ": 7243,
      "cad": 7244,
      "clo": 7245,
      "cip": 7246,
      "cert": 7247,
      "dv": 7248,
      "dp": 7249,
      "dmp": 7250,
      "dib": 7251,
      "dode": 7252,
      "dta": 7253,
      "dest": 7254,
      "dibs": 7255,
      "divid": 7256,
      "dynamically": 7257,
      "destructive": 7258,
      "eg": 7259,
      "e2": 7260,
      "eess": 7261,
      "eco": 7262,
      "fh": 7263,
      "fing": 7264,
      "fis": 7265,
      "fibs": 7266,
      "fall": 7267,
      "fluorom": 7268,
      "filed": 7269,
      "fnscs": 7270,
      "fpmc": 7271,
      "felt": 7272,
      "gese": 7273,
      "germ": 7274,
      "gather": 7275,
      "hor": 7276,
      "hce": 7277,
      "hpo": 7278,
      "h3o": 7279,
      "hso4": 7280,
      "holy": 7281,
      "htt": 7282,
      "iter": 7283,
      "jap": 7284,
      "ke": 7285,
      "kh": 7286,
      "kar": 7287,
      "ket": 7288,
      "kmbs": 7289,
      "ly": 7290,
      "lj": 7291,
      "lor": 7292,
      "las": 7293,
      "lum": 7294,
      "lost": 7295,
      "lmb": 7296,
      "lmas": 7297,
      "lzn": 7298,
      "lands": 7299,
      "mb": 7300,
      "mere": 7301,
      "mpp": 7302,
      "mention": 7303,
      "mrad": 7304,
      "mortem": 7305,
      "nd": 7306,
      "nv": 7307,
      "nn": 7308,
      "nation": 7309,
      "nom": 7310,
      "nant": 7311,
      "nine": 7312,
      "native": 7313,
      "naph": 7314,
      "norm": 7315,
      "n4441": 7316,
      "oe": 7317,
      "oes": 7318,
      "och": 7319,
      "oems": 7320,
      "p8": 7321,
      "p1": 7322,
      "pin": 7323,
      "pion": 7324,
      "pend": 7325,
      "pits": 7326,
      "pier": 7327,
      "p2o7": 7328,
      "p4441": 7329,
      "qs": 7330,
      "rt": 7331,
      "rs": 7332,
      "retic": 7333,
      "rde": 7334,
      "rupt": 7335,
      "rix": 7336,
      "sk": 7337,
      "ster": 7338,
      "sel": 7339,
      "sib": 7340,
      "squ": 7341,
      "sac": 7342,
      "ssi": 7343,
      "sli": 7344,
      "sax": 7345,
      "sgd": 7346,
      "sandw": 7347,
      "tc": 7348,
      "tent": 7349,
      "tab": 7350,
      "tme": 7351,
      "tba": 7352,
      "tightly": 7353,
      "tester": 7354,
      "vl": 7355,
      "v3": 7356,
      "valent": 7357,
      "wr": 7358,
      "wur": 7359,
      "wise": 7360,
      "wishes": 7361,
      "youn": 7362,
      "zif": 7363,
      "zir": 7364,
      "zero": 7365,
      "∼7": 7366,
      "∼2": 7367,
      "∼20": 7368,
      "∼99": 7369,
      "∼500": 7370,
      "≈8": 7371,
      "##ots": 7372,
      "##occ": 7373,
      "##oalumin": 7374,
      "##oked": 7375,
      "##olytes": 7376,
      "##opectin": 7377,
      "##dm": 7378,
      "##da": 7379,
      "##dle": 7380,
      "##den": 7381,
      "##dis": 7382,
      "##dated": 7383,
      "##dynamic": 7384,
      "##dimethyl": 7385,
      "##ec": 7386,
      "##eut": 7387,
      "##ef4": 7388,
      "##eks": 7389,
      "##lap": 7390,
      "##land": 7391,
      "##vest": 7392,
      "##viron": 7393,
      "##ventional": 7394,
      "##mium": 7395,
      "##methacrylate": 7396,
      "##mortem": 7397,
      "##n2": 7398,
      "##net": 7399,
      "##ners": 7400,
      "##tg": 7401,
      "##ty": 7402,
      "##tur": 7403,
      "##top": 7404,
      "##tpp": 7405,
      "##sy": 7406,
      "##sp": 7407,
      "##su": 7408,
      "##sw": 7409,
      "##bd": 7410,
      "##bations": 7411,
      "##band": 7412,
      "##ia": 7413,
      "##ian": 7414,
      "##iolane": 7415,
      "##iophene": 7416,
      "##ipped": 7417,
      "##gst": 7418,
      "##gest": 7419,
      "##gence": 7420,
      "##g−1": 7421,
      "##grees": 7422,
      "##gory": 7423,
      "##grove": 7424,
      "##ylen": 7425,
      "##ysi": 7426,
      "##ration": 7427,
      "##rac": 7428,
      "##run": 7429,
      "##rich": 7430,
      "##rally": 7431,
      "##rone": 7432,
      "##rfbs": 7433,
      "##rupt": 7434,
      "##rificial": 7435,
      "##5mg": 7436,
      "##a2": 7437,
      "##aac": 7438,
      "##pen": 7439,
      "##pta": 7440,
      "##pens": 7441,
      "##p2o7": 7442,
      "##p2s": 7443,
      "##xw": 7444,
      "##xic": 7445,
      "##xist": 7446,
      "##66": 7447,
      "##650": 7448,
      "##78": 7449,
      "##7000": 7450,
      "##hion": 7451,
      "##hyl": 7452,
      "##hield": 7453,
      "##uated": 7454,
      "##fan": 7455,
      "##fluor": 7456,
      "##fram": 7457,
      "##82": 7458,
      "##811": 7459,
      "##c2": 7460,
      "##cing": 7461,
      "##cond": 7462,
      "##cene": 7463,
      "##came": 7464,
      "##cds": 7465,
      "##curity": 7466,
      "##cycle": 7467,
      "##93": 7468,
      "##12o4": 7469,
      "##2se": 7470,
      "##2mo": 7471,
      "##2mg": 7472,
      "##kel": 7473,
      "##kers": 7474,
      "##ze": 7475,
      "##zbs": 7476,
      "##zian": 7477,
      "##45": 7478,
      "##47": 7479,
      "##48": 7480,
      "##4fe": 7481,
      "##−n": 7482,
      "##−air": 7483,
      "##−sulfur": 7484,
      "##wt": 7485,
      "##with": 7486,
      "##way": 7487,
      "##w12o4": 7488,
      "##w48": 7489,
      "##3f": 7490,
      "##3o2": 7491,
      "##3oh": 7492,
      "##3n1": 7493,
      "##°c": 7494,
      "##eration": 7495,
      "##erning": 7496,
      "##erpr": 7497,
      "##erbated": 7498,
      "##oned": 7499,
      "##onite": 7500,
      "##onically": 7501,
      "##onential": 7502,
      "##onomers": 7503,
      "##onounced": 7504,
      "##ativity": 7505,
      "##aturing": 7506,
      "##atob": 7507,
      "##esi": 7508,
      "##ctors": 7509,
      "##roy": 7510,
      "##rolyte": 7511,
      "##itu": 7512,
      "##itant": 7513,
      "##itching": 7514,
      "##leth": 7515,
      "##inic": 7516,
      "##infor": 7517,
      "##inese": 7518,
      "##integ": 7519,
      "##invasive": 7520,
      "##ena": 7521,
      "##ender": 7522,
      "##environ": 7523,
      "##edies": 7524,
      "ann": 7525,
      "anod": 7526,
      "answ": 7527,
      "##alum": 7528,
      "##alate": 7529,
      "##ica": 7530,
      "##ices": 7531,
      "##iced": 7532,
      "##ionate": 7533,
      "##orate": 7534,
      "##orient": 7535,
      "inel": 7536,
      "induct": 7537,
      "inert": 7538,
      "##lyzed": 7539,
      "##anar": 7540,
      "##anions": 7541,
      "##ingent": 7542,
      "##entzian": 7543,
      "##reated": 7544,
      "##regn": 7545,
      "##requency": 7546,
      "electrohe": 7547,
      "##ism": 7548,
      "##isive": 7549,
      "##isition": 7550,
      "##isting": 7551,
      "##tered": 7552,
      "##tering": 7553,
      "##asp": 7554,
      "##astr": 7555,
      "##asiloxane": 7556,
      "##etitive": 7557,
      "##etimes": 7558,
      "##ch2o": 7559,
      "##ch3co": 7560,
      "toxic": 7561,
      "##olate": 7562,
      "##ollen": 7563,
      "##olub": 7564,
      "##olds": 7565,
      "##olute": 7566,
      "##veil": 7567,
      "##veled": 7568,
      "##igent": 7569,
      "##iding": 7570,
      "##idence": 7571,
      "##idimensional": 7572,
      "read": 7573,
      "reuse": 7574,
      "reformation": 7575,
      "rebu": 7576,
      "reinfor": 7577,
      "reorient": 7578,
      "stat": 7579,
      "stir": 7580,
      "stfsi": 7581,
      "##emed": 7582,
      "##empl": 7583,
      "##emission": 7584,
      "lil": 7585,
      "lii": 7586,
      "li5": 7587,
      "li7": 7588,
      "lived": 7589,
      "lio2": 7590,
      "co3": 7591,
      "cole": 7592,
      "coinc": 7593,
      "copyr": 7594,
      "cointercal": 7595,
      "##stit": 7596,
      "contributed": 7597,
      "concom": 7598,
      "##ception": 7599,
      "former": 7600,
      "als": 7601,
      "alme": 7602,
      "alps": 7603,
      "alone": 7604,
      "altf": 7605,
      "algor": 7606,
      "alignment": 7607,
      "al7000": 7608,
      "al82": 7609,
      "##urable": 7610,
      "##gep2s": 7611,
      "##ili": 7612,
      "##iltr": 7613,
      "##ilization": 7614,
      "depp": 7615,
      "decent": 7616,
      "dehydro": 7617,
      "deemed": 7618,
      "promp": 7619,
      "prohib": 7620,
      "projected": 7621,
      "pom": 7622,
      "##usion": 7623,
      "##uscri": 7624,
      "isotropic": 7625,
      "##icals": 7626,
      "##ifact": 7627,
      "##utine": 7628,
      "chem": 7629,
      "chel": 7630,
      "ch3oh": 7631,
      "chinese": 7632,
      "ascor": 7633,
      "##ires": 7634,
      "##irical": 7635,
      "##actic": 7636,
      "##ials": 7637,
      "##ucture": 7638,
      "##thal": 7639,
      "became": 7640,
      "##iber": 7641,
      "##apac": 7642,
      "##apsh": 7643,
      "encl": 7644,
      "enters": 7645,
      "ende": 7646,
      "entailing": 7647,
      "enrich": 7648,
      "##osal": 7649,
      "##osan": 7650,
      "##osing": 7651,
      "##osilyl": 7652,
      "resin": 7653,
      "resur": 7654,
      "rescu": 7655,
      "respond": 7656,
      "##perid": 7657,
      "##perform": 7658,
      "maxw": 7659,
      "##opic": 7660,
      "##opent": 7661,
      "##quencies": 7662,
      "##quinones": 7663,
      "attribut": 7664,
      "atten": 7665,
      "exac": 7666,
      "exert": 7667,
      "exclus": 7668,
      "excluding": 7669,
      "exempl": 7670,
      "##ivates": 7671,
      "compute": 7672,
      "compressive": 7673,
      "##acy": 7674,
      "##acing": 7675,
      "##acious": 7676,
      "discl": 7677,
      "discont": 7678,
      "disinteg": 7679,
      "##clinic": 7680,
      "metad": 7681,
      "polyion": 7682,
      "trivalent": 7683,
      "##mentally": 7684,
      "what": 7685,
      "##unting": 7686,
      "##unched": 7687,
      "##uniform": 7688,
      "##fortunately": 7689,
      "interd": 7690,
      "intern": 7691,
      "interf": 7692,
      "interpen": 7693,
      "##ylammonium": 7694,
      "##amb": 7695,
      "weeks": 7696,
      "perfluoro": 7697,
      "pertur": 7698,
      "perception": 7699,
      "##adem": 7700,
      "##romethyl": 7701,
      "##elligent": 7702,
      "meter": 7703,
      "meea": 7704,
      "me2mo": 7705,
      "##tafluoro": 7706,
      "##taken": 7707,
      "shared": 7708,
      "shear": 7709,
      "stringent": 7710,
      "##formamide": 7711,
      "adduct": 7712,
      "adverse": 7713,
      "adequ": 7714,
      "##ested": 7715,
      "##estone": 7716,
      "##estoring": 7717,
      "##enses": 7718,
      "difluoride": 7719,
      "##ometh": 7720,
      "pronounced": 7721,
      "prestoring": 7722,
      "mgbr": 7723,
      "mgf2": 7724,
      "impair": 7725,
      "impregn": 7726,
      "##ante": 7727,
      "org": 7728,
      "orfb": 7729,
      "metal−sulfur": 7730,
      "solved": 7731,
      "performs": 7732,
      "moment": 7733,
      "moo2": 7734,
      "unp": 7735,
      "unable": 7736,
      "unpl": 7737,
      "unav": 7738,
      "unlock": 7739,
      "uncont": 7740,
      "unveil": 7741,
      "unfortunately": 7742,
      "capacitor": 7743,
      "selen": 7744,
      "seques": 7745,
      "sectors": 7746,
      "transmit": 7747,
      "transpar": 7748,
      "transient": 7749,
      "##phthal": 7750,
      "cycler": 7751,
      "cyclable": 7752,
      "##etheless": 7753,
      "carbonated": 7754,
      "carbonized": 7755,
      "##otetr": 7756,
      "grand": 7757,
      "grail": 7758,
      "grasp": 7759,
      "formamide": 7760,
      "aco": 7761,
      "academ": 7762,
      "##ucive": 7763,
      "showc": 7764,
      "##sily": 7765,
      "##chanical": 7766,
      "##channel": 7767,
      "alluring": 7768,
      "##oxid": 7769,
      "##oxane": 7770,
      "##coal": 7771,
      "structuring": 7772,
      "bet3": 7773,
      "liquidlike": 7774,
      "sulfation": 7775,
      "sulfates": 7776,
      "charcoal": 7777,
      "##versal": 7778,
      "##etrating": 7779,
      "redor": 7780,
      "come": 7781,
      "comonomers": 7782,
      "phalcl3": 7783,
      "physi": 7784,
      "ph2mg": 7785,
      "deshield": 7786,
      "neose": 7787,
      "undertaken": 7788,
      "electrified": 7789,
      "##afluoride": 7790,
      "methane": 7791,
      "methanol": 7792,
      "technically": 7793,
      "##aphosph": 7794,
      "##weight": 7795,
      "analyse": 7796,
      "diffuse": 7797,
      "overha": 7798,
      "overvol": 7799,
      "overlap": 7800,
      "##anck": 7801,
      "##anced": 7802,
      "parent": 7803,
      "parylene": 7804,
      "dipo": 7805,
      "dianion": 7806,
      "graphites": 7807,
      "intended": 7808,
      "intelligent": 7809,
      "evolve": 7810,
      "relies": 7811,
      "relied": 7812,
      "##pective": 7813,
      "measurable": 7814,
      "surfact": 7815,
      "board": 7816,
      "differently": 7817,
      "differentiating": 7818,
      "##loro": 7819,
      "nax": 7820,
      "nah": 7821,
      "nailing": 7822,
      "na4fe": 7823,
      "##cape": 7824,
      "signature": 7825,
      "##brn2": 7826,
      "##ologically": 7827,
      "amines": 7828,
      "amido": 7829,
      "action": 7830,
      "activating": 7831,
      "nonafluoro": 7832,
      "noncom": 7833,
      "nonpolar": 7834,
      "noninvasive": 7835,
      "nonuniform": 7836,
      "nonetheless": 7837,
      "##generation": 7838,
      "roco2": 7839,
      "routine": 7840,
      "plmp": 7841,
      "planar": 7842,
      "planck": 7843,
      "index": 7844,
      "ethoxyl": 7845,
      "ethylen": 7846,
      "transporting": 7847,
      "newman": 7848,
      "upper": 7849,
      "upfield": 7850,
      "updated": 7851,
      "##ondensation": 7852,
      "cry": 7853,
      "processability": 7854,
      "propane": 7855,
      "propene": 7856,
      "proposes": 7857,
      "propionate": 7858,
      "proposal": 7859,
      "twin": 7860,
      "##o2f2": 7861,
      "designated": 7862,
      "lifap": 7863,
      "chalcogenide": 7864,
      "thermome": 7865,
      "butoxy": 7866,
      "butanol": 7867,
      "buthyl": 7868,
      "researches": 7869,
      "2046": 7870,
      "zncl2": 7871,
      "znmn2o4": 7872,
      "znso4": 7873,
      "clum": 7874,
      "closed": 7875,
      "additions": 7876,
      "electroneut": 7877,
      "noe": 7878,
      "nob": 7879,
      "chemicals": 7880,
      "chemicalsh": 7881,
      "obstruct": 7882,
      "modular": 7883,
      "modulate": 7884,
      "insulating": 7885,
      "inserts": 7886,
      "afn": 7887,
      "##sulfide": 7888,
      "##sulfonyl": 7889,
      "##sulfolane": 7890,
      "##ynth": 7891,
      "##achlor": 7892,
      "##incingly": 7893,
      "105": 7894,
      "10−5": 7895,
      "variations": 7896,
      "combust": 7897,
      "dimers": 7898,
      "dimethylether": 7899,
      "##osecond": 7900,
      "intercalant": 7901,
      "intercalating": 7902,
      "intercalants": 7903,
      "##points": 7904,
      "magnesiation": 7905,
      "elast": 7906,
      "elusive": 7907,
      "contin": 7908,
      "contamin": 7909,
      "contender": 7910,
      "ecap": 7911,
      "ecologically": 7912,
      "furn": 7913,
      "generates": 7914,
      "soc": 7915,
      "sota": 7916,
      "##ynamics": 7917,
      "consolid": 7918,
      "understandings": 7919,
      "therein": 7920,
      "spite": 7921,
      "spark": 7922,
      "spacing": 7923,
      "oxyethylene": 7924,
      "oxydi": 7925,
      "nani0": 7926,
      "sipe": 7927,
      "silyl": 7928,
      "siw12o4": 7929,
      "confron": 7930,
      "confidence": 7931,
      "sodiated": 7932,
      "fe3": 7933,
      "featuring": 7934,
      "bisalt": 7935,
      "polysulfone": 7936,
      "oxygenated": 7937,
      "impediment": 7938,
      "going": 7939,
      "hydrocarbon": 7940,
      "hydrodynamic": 7941,
      "hydrofluor": 7942,
      "complexity": 7943,
      "theoretically": 7944,
      "determines": 7945,
      "##ordinated": 7946,
      "practice": 7947,
      "explores": 7948,
      "##ostatically": 7949,
      "methylation": 7950,
      "methylimidazole": 7951,
      "methylacetamide": 7952,
      "methylmethacrylate": 7953,
      "methylalum": 7954,
      "methylsulfolane": 7955,
      "infra": 7956,
      "infinite": 7957,
      "infiltr": 7958,
      "grown": 7959,
      "grows": 7960,
      "timefram": 7961,
      "dms": 7962,
      "dmim": 7963,
      "dmts": 7964,
      "multie": 7965,
      "freely": 7966,
      "articles": 7967,
      "arena": 7968,
      "manip": 7969,
      "manag": 7970,
      "mangrove": 7971,
      "manuscri": 7972,
      "lines": 7973,
      "links": 7974,
      "operable": 7975,
      "supplement": 7976,
      "remove": 7977,
      "remedies": 7978,
      "escds": 7979,
      "reductions": 7980,
      "degrades": 7981,
      "degraded": 7982,
      "coexist": 7983,
      "strongest": 7984,
      "greener": 7985,
      "hev": 7986,
      "hea": 7987,
      "heav": 7988,
      "identical": 7989,
      "monog": 7990,
      "lics": 7991,
      "licenses": 7992,
      "1980": 7993,
      "2001": 7994,
      "catalysis": 7995,
      "catalyze": 7996,
      "pcs": 7997,
      "pcbs": 7998,
      "scant": 7999,
      "submer": 8000,
      "suberate": 8001,
      "threefold": 8002,
      "regimes": 8003,
      "similarly": 8004,
      "similarity": 8005,
      "similarities": 8006,
      "alternating": 8007,
      "glycidol": 8008,
      "compart": 8009,
      "137": 8010,
      "133": 8011,
      "flowing": 8012,
      "mscm": 8013,
      "pvac": 8014,
      "silicides": 8015,
      "empirical": 8016,
      "abundances": 8017,
      "abundancy": 8018,
      "finer": 8019,
      "emb": 8020,
      "emds": 8021,
      "emulsion": 8022,
      "embi": 8023,
      "powering": 8024,
      "tetrachlor": 8025,
      "secure": 8026,
      "outlin": 8027,
      "widefield": 8028,
      "oxidizing": 8029,
      "oxidizes": 8030,
      "##yrr": 8031,
      "##yrene": 8032,
      "##rices": 8033,
      "functionalities": 8034,
      "functionalised": 8035,
      "##ogether": 8036,
      "conducive": 8037,
      "equally": 8038,
      "equipped": 8039,
      "separating": 8040,
      "50li": 8041,
      "decarbon": 8042,
      "decisive": 8043,
      "agents": 8044,
      "agree": 8045,
      "filled": 8046,
      "alkoxides": 8047,
      "microem": 8048,
      "microelectrode": 8049,
      "microenviron": 8050,
      "dimethylformamide": 8051,
      "faced": 8052,
      "reactants": 8053,
      "extents": 8054,
      "convol": 8055,
      "convincingly": 8056,
      "suitably": 8057,
      "transitional": 8058,
      "phosphine": 8059,
      "nanoflakes": 8060,
      "nanochannel": 8061,
      "boric": 8062,
      "borane": 8063,
      "borne": 8064,
      "##mons": 8065,
      "lots": 8066,
      "##loying": 8067,
      "mg2cl3": 8068,
      "fastest": 8069,
      "glc": 8070,
      "linearly": 8071,
      "molal": 8072,
      "acetyl": 8073,
      "hybridization": 8074,
      "progressive": 8075,
      "progressively": 8076,
      "##ireview": 8077,
      "polarity": 8078,
      "polarized": 8079,
      "##degrees": 8080,
      "shifted": 8081,
      "door": 8082,
      "offered": 8083,
      "passivity": 8084,
      "passivating": 8085,
      "passivates": 8086,
      "##ronous": 8087,
      "##cu18": 8088,
      "associate": 8089,
      "spins": 8090,
      "fundamentally": 8091,
      "expense": 8092,
      "explicit": 8093,
      "exponential": 8094,
      "##polyethers": 8095,
      "dmeim": 8096,
      "directed": 8097,
      "directing": 8098,
      "##ernible": 8099,
      "paths": 8100,
      "##pores": 8101,
      "analyzing": 8102,
      "consisted": 8103,
      "chlorides": 8104,
      "crossing": 8105,
      "wherein": 8106,
      "ethyltriethamine": 8107,
      "pfgse": 8108,
      "vehicular": 8109,
      "voltammetric": 8110,
      "##rams": 8111,
      "##ophilic": 8112,
      "15al0": 8113,
      "bran": 8114,
      "brand": 8115,
      "bright": 8116,
      "bruce": 8117,
      "flight": 8118,
      "flash": 8119,
      "xray": 8120,
      "examination": 8121,
      "examining": 8122,
      "prevention": 8123,
      "advancing": 8124,
      "advancements": 8125,
      "latp": 8126,
      "latent": 8127,
      "mno": 8128,
      "mnf2": 8129,
      "dotkg": 8130,
      "dotdm": 8131,
      "minireview": 8132,
      "##asticized": 8133,
      "atomically": 8134,
      "motivation": 8135,
      "photoemission": 8136,
      "bare": 8137,
      "standpoint": 8138,
      "timescale": 8139,
      "directional": 8140,
      "11b": 8141,
      "112": 8142,
      "11tfsi": 8143,
      "1149": 8144,
      "##rality": 8145,
      "pegma": 8146,
      "achievement": 8147,
      "correspondence": 8148,
      "170": 8149,
      "pp13": 8150,
      "vincent": 8151,
      "define": 8152,
      "defluorination": 8153,
      "transformed": 8154,
      "transformational": 8155,
      "crystallizes": 8156,
      "trifluoromethanesulfonate": 8157,
      "opened": 8158,
      "dsc3n1": 8159,
      "estimates": 8160,
      "fabricating": 8161,
      "drives": 8162,
      "fluoroether": 8163,
      "morphological": 8164,
      "universal": 8165,
      "publications": 8166,
      "31p": 8167,
      "317": 8168,
      "absolute": 8169,
      "emergent": 8170,
      "guest": 8171,
      "halide": 8172,
      "lightest": 8173,
      "lightweight": 8174,
      "mpy": 8175,
      "matching": 8176,
      "matrices": 8177,
      "completed": 8178,
      "constantly": 8179,
      "slight": 8180,
      "slmb": 8181,
      "slopes": 8182,
      "sno": 8183,
      "sn2": 8184,
      "snar": 8185,
      "snse": 8186,
      "snapsh": 8187,
      "tunability": 8188,
      "intra": 8189,
      "maxima": 8190,
      "maximal": 8191,
      "printed": 8192,
      "causing": 8193,
      "oligoethylene": 8194,
      "shuttles": 8195,
      "125": 8196,
      "128": 8197,
      "##aluminous": 8198,
      "hexafluorophosphoric": 8199,
      "80s": 8200,
      "##comings": 8201,
      "##commons": 8202,
      "instit": 8203,
      "monoclinic": 8204,
      "localised": 8205,
      "standardized": 8206,
      "follows": 8207,
      "lacking": 8208,
      "profiling": 8209,
      "infrastr": 8210,
      "assemble": 8211,
      "assembling": 8212,
      "3dom": 8213,
      "3500": 8214,
      "aimed": 8215,
      "raib": 8216,
      "raising": 8217,
      "raise": 8218,
      "distances": 8219,
      "distributions": 8220,
      "nmc11": 8221,
      "nmc811": 8222,
      "possessing": 8223,
      "incorporate": 8224,
      "incorporates": 8225,
      "##conventional": 8226,
      "shorten": 8227,
      "shortens": 8228,
      "shortcomings": 8229,
      "dioxiolane": 8230,
      "substitute": 8231,
      "substituting": 8232,
      "blocks": 8233,
      "diluent": 8234,
      "fails": 8235,
      "inhibitor": 8236,
      "inhibitors": 8237,
      "chloros": 8238,
      "pressures": 8239,
      "configured": 8240,
      "slowly": 8241,
      "##ocapac": 8242,
      "prospective": 8243,
      "nucleophilicity": 8244,
      "stefan": 8245,
      "producing": 8246,
      "postmortem": 8247,
      "organo": 8248,
      "organized": 8249,
      "organometal": 8250,
      "artificial": 8251,
      "artifact": 8252,
      "contrasted": 8253,
      "aggregate": 8254,
      "appeared": 8255,
      "eutectics": 8256,
      "235": 8257,
      "niooh": 8258,
      "pyridine": 8259,
      "pyr14": 8260,
      "sensor": 8261,
      "thicker": 8262,
      "thickening": 8263,
      "concise": 8264,
      "concerning": 8265,
      "choices": 8266,
      "comprise": 8267,
      "preference": 8268,
      "consume": 8269,
      "calorimeter": 8270,
      "vinylbenzene": 8271,
      "collection": 8272,
      "chloroaluminous": 8273,
      "networks": 8274,
      "pbe": 8275,
      "pba": 8276,
      "so2c2": 8277,
      "versatile": 8278,
      "##mo0": 8279,
      "##mo3s4": 8280,
      "deline": 8281,
      "observing": 8282,
      "nanoporous": 8283,
      "##olecules": 8284,
      "185": 8285,
      "184": 8286,
      "18650": 8287,
      "favored": 8288,
      "favoring": 8289,
      "referenced": 8290,
      "referred": 8291,
      "lixfe": 8292,
      "triazole": 8293,
      "triethoxysilane": 8294,
      "2980": 8295,
      "405": 8296,
      "406": 8297,
      "##borates": 8298,
      "disperses": 8299,
      "necessity": 8300,
      "robustness": 8301,
      "minima": 8302,
      "3002": 8303,
      "bio": 8304,
      "bian": 8305,
      "biphenyl": 8306,
      "edges": 8307,
      "earlier": 8308,
      "radiof": 8309,
      "shells": 8310,
      "diethylsulfide": 8311,
      "multiphase": 8312,
      "protonation": 8313,
      "broader": 8314,
      "broaden": 8315,
      "broadened": 8316,
      "broadband": 8317,
      "accounting": 8318,
      "integrate": 8319,
      "integrating": 8320,
      "bromo": 8321,
      "frequently": 8322,
      "frequencies": 8323,
      "gpe1": 8324,
      "lastly": 8325,
      "##nered": 8326,
      "##iloxanes": 8327,
      "li2s4": 8328,
      "displaying": 8329,
      "distinction": 8330,
      "originate": 8331,
      "originates": 8332,
      "originating": 8333,
      "nanoparticle": 8334,
      "140": 8335,
      "1400": 8336,
      "hardware": 8337,
      "mda": 8338,
      "meso": 8339,
      "tfep": 8340,
      "neutrally": 8341,
      "oxidatively": 8342,
      "predictive": 8343,
      "galvanostatically": 8344,
      "fashion": 8345,
      "##heet": 8346,
      "discoveries": 8347,
      "dissoluted": 8348,
      "idea": 8349,
      "ideally": 8350,
      "engineered": 8351,
      "05o2": 8352,
      "homo": 8353,
      "melts": 8354,
      "thinners": 8355,
      "cosmo": 8356,
      "adopt": 8357,
      "adopting": 8358,
      "##triethyl": 8359,
      "playing": 8360,
      "propylamine": 8361,
      "propylpi": 8362,
      "##composite": 8363,
      "affords": 8364,
      "powders": 8365,
      "accuracy": 8366,
      "accordance": 8367,
      "macrocycle": 8368,
      "##ogeneously": 8369,
      "inherently": 8370,
      "275": 8371,
      "273": 8372,
      "apparatus": 8373,
      "desolvated": 8374,
      "precious": 8375,
      "irreversibly": 8376,
      "constituent": 8377,
      "neutrality": 8378,
      "neutralization": 8379,
      "245": 8380,
      "373": 8381,
      "fibers": 8382,
      "fibrous": 8383,
      "gaussian": 8384,
      "ga5mg": 8385,
      "ga2se": 8386,
      "hoped": 8387,
      "markets": 8388,
      "ncf": 8389,
      "innate": 8390,
      "deintercalated": 8391,
      "trimethylphosphate": 8392,
      "lifetimes": 8393,
      "viewpoint": 8394,
      "viewpoints": 8395,
      "coordinative": 8396,
      "emphasizing": 8397,
      "tetrafluoroethyl": 8398,
      "tetrahedral": 8399,
      "defective": 8400,
      "affording": 8401,
      "550": 8402,
      "label": 8403,
      "thought": 8404,
      "repeat": 8405,
      "trapped": 8406,
      "methoxyleth": 8407,
      "problematic": 8408,
      "fluoroethylenecarbonate": 8409,
      "dicyanometh": 8410,
      "benzene": 8411,
      "benzoate": 8412,
      "precipitate": 8413,
      "precipitated": 8414,
      "precipitates": 8415,
      "create": 8416,
      "created": 8417,
      "dgbs": 8418,
      "ferric": 8419,
      "hollow": 8420,
      "holland": 8421,
      "nafef4": 8422,
      "nitrides": 8423,
      "nitriles": 8424,
      "switching": 8425,
      "swollen": 8426,
      "tends": 8427,
      "anchor": 8428,
      "anchors": 8429,
      "anthrac": 8430,
      "excited": 8431,
      "ecsj": 8432,
      "validation": 8433,
      "validate": 8434,
      "ultrafine": 8435,
      "establishing": 8436,
      "heterocomposite": 8437,
      "dcb": 8438,
      "duration": 8439,
      "gaps": 8440,
      "mcile": 8441,
      "thiyl": 8442,
      "thiazole": 8443,
      "alleviates": 8444,
      "grafting": 8445,
      "accepted": 8446,
      "acceptance": 8447,
      "eventual": 8448,
      "positions": 8449,
      "immense": 8450,
      "retardants": 8451,
      "principal": 8452,
      "innovations": 8453,
      "history": 8454,
      "merge": 8455,
      "nh4ch3co": 8456,
      "pivalate": 8457,
      "terpy": 8458,
      "tertafluoro": 8459,
      "tailor": 8460,
      "vacancy": 8461,
      "stoichiometry": 8462,
      "assists": 8463,
      "tracer": 8464,
      "interlayers": 8465,
      "lifespans": 8466,
      "governing": 8467,
      "governs": 8468,
      "exceptional": 8469,
      "dispersity": 8470,
      "##capacities": 8471,
      "triggers": 8472,
      "262": 8473,
      "335": 8474,
      "33mn0": 8475,
      "bf1": 8476,
      "cutting": 8477,
      "donating": 8478,
      "dodzn": 8479,
      "erda": 8480,
      "gaining": 8481,
      "holding": 8482,
      "##alents": 8483,
      "##enesulfonyl": 8484,
      "##acetyl": 8485,
      "interpreting": 8486,
      "periods": 8487,
      "periodicals": 8488,
      "hyperpolar": 8489,
      "clarifies": 8490,
      "exploiting": 8491,
      "esterification": 8492,
      "macromolecules": 8493,
      "conjugative": 8494,
      "1o2o2": 8495,
      "340": 8496,
      "category": 8497,
      "dnp": 8498,
      "fluids": 8499,
      "filler": 8500,
      "filling": 8501,
      "harsh": 8502,
      "harvest": 8503,
      "lhce": 8504,
      "risks": 8505,
      "##fcs": 8506,
      "stimulate": 8507,
      "stimulates": 8508,
      "compromise": 8509,
      "compromised": 8510,
      "compensating": 8511,
      "sheets": 8512,
      "captured": 8513,
      "difluorophosphoric": 8514,
      "movement": 8515,
      "unraveled": 8516,
      "acquired": 8517,
      "acquisition": 8518,
      "borophosphate": 8519,
      "microsheet": 8520,
      "dendrimer": 8521,
      "linewidths": 8522,
      "assume": 8523,
      "assumption": 8524,
      "profoundly": 8525,
      "buildup": 8526,
      "synergetic": 8527,
      "reflected": 8528,
      "reflectance": 8529,
      "ferrocenyl": 8530,
      "restricts": 8531,
      "restricting": 8532,
      "alet3": 8533,
      "cfx": 8534,
      "deduced": 8535,
      "h2po4": 8536,
      "milestone": 8537,
      "pentyl": 8538,
      "pentoxide": 8539,
      "packed": 8540,
      "packaging": 8541,
      "rare": 8542,
      "varies": 8543,
      "wetting": 8544,
      "walls": 8545,
      "##volute": 8546,
      "##certain": 8547,
      "##alty": 8548,
      "alike": 8549,
      "ensures": 8550,
      "polyanion": 8551,
      "polyanions": 8552,
      "polyaniline": 8553,
      "orbat": 8554,
      "undet": 8555,
      "segments": 8556,
      "segreg": 8557,
      "soaking": 8558,
      "removes": 8559,
      "supercapacitor": 8560,
      "doubt": 8561,
      "doubly": 8562,
      "fluctuation": 8563,
      "avoiding": 8564,
      "deficiencies": 8565,
      "benchtop": 8566,
      "carboxylate": 8567,
      "reconstructed": 8568,
      "unexpectedly": 8569,
      "superconcentration": 8570,
      "225": 8571,
      "c2h": 8572,
      "c2f": 8573,
      "daily": 8574,
      "eeis": 8575,
      "foster": 8576,
      "fulfilled": 8577,
      "penalty": 8578,
      "pursued": 8579,
      "rolling": 8580,
      "topic": 8581,
      "polycarbonate": 8582,
      "polycondensation": 8583,
      "polyphosphazene": 8584,
      "##amidoethoxy": 8585,
      "perfect": 8586,
      "adapt": 8587,
      "adaptability": 8588,
      "diameter": 8589,
      "noticeably": 8590,
      "participation": 8591,
      "scaffolds": 8592,
      "scenarios": 8593,
      "intriguingly": 8594,
      "mesopore": 8595,
      "pyrolyzed": 8596,
      "categorized": 8597,
      "hierarchically": 8598,
      "randomly": 8599,
      "tammann": 8600,
      "zwitterion": 8601,
      "460": 8602,
      "aaibs": 8603,
      "axis": 8604,
      "axial": 8605,
      "bpy": 8606,
      "balanced": 8607,
      "laminated": 8608,
      "saving": 8609,
      "sometimes": 8610,
      "sulphate": 8611,
      "yloxy": 8612,
      "##sn3": 8613,
      "##glycol": 8614,
      "thbz1": 8615,
      "thbz2": 8616,
      "##atomic": 8617,
      "recovery": 8618,
      "recovered": 8619,
      "li10gep2s": 8620,
      "converting": 8621,
      "converted": 8622,
      "##cellulose": 8623,
      "dealloying": 8624,
      "ch2ch2o": 8625,
      "polymorphs": 8626,
      "polyvinylidene": 8627,
      "permits": 8628,
      "cyclodextrins": 8629,
      "appreciable": 8630,
      "appreciably": 8631,
      "paradox": 8632,
      "diols": 8633,
      "question": 8634,
      "questions": 8635,
      "quickly": 8636,
      "nanodice": 8637,
      "nanowires": 8638,
      "visualize": 8639,
      "monotonically": 8640,
      "deconvolute": 8641,
      "extending": 8642,
      "lixsioy": 8643,
      "ionogels": 8644,
      "incompatible": 8645,
      "incompatibility": 8646,
      "encourage": 8647,
      "encouraging": 8648,
      "surveyed": 8649,
      "spontaneous": 8650,
      "6400": 8651,
      "bh3": 8652,
      "dichal": 8653,
      "dichloro": 8654,
      "fmt": 8655,
      "fm2": 8656,
      "fesas": 8657,
      "fesem": 8658,
      "garnet": 8659,
      "garnered": 8660,
      "iodide": 8661,
      "llc": 8662,
      "llz": 8663,
      "o6a2": 8664,
      "silane": 8665,
      "tppli": 8666,
      "walden": 8667,
      "inclusion": 8668,
      "inclusions": 8669,
      "reagent": 8670,
      "reagents": 8671,
      "styrene": 8672,
      "styrenesulfonyl": 8673,
      "connectivity": 8674,
      "pof2ome": 8675,
      "isocyanate": 8676,
      "chitosan": 8677,
      "enlight": 8678,
      "encapsulated": 8679,
      "restrains": 8680,
      "resemble": 8681,
      "resembling": 8682,
      "expectations": 8683,
      "polyacetals": 8684,
      "shapes": 8685,
      "shaped": 8686,
      "mgxmo3s4": 8687,
      "dictates": 8688,
      "elaborated": 8689,
      "calibration": 8690,
      "calibrated": 8691,
      "hydrolytic": 8692,
      "hydrolytically": 8693,
      "hydrochloric": 8694,
      "hydrochloride": 8695,
      "hydrofluoroether": 8696,
      "hydrofluoroethers": 8697,
      "cavity": 8698,
      "cavities": 8699,
      "microfiber": 8700,
      "ligament": 8701,
      "carboxymethylcellulose": 8702,
      "recycling": 8703,
      "recyclability": 8704,
      "fractal": 8705,
      "meaningful": 8706,
      "benzoquinone": 8707,
      "descriptor": 8708,
      "descriptors": 8709,
      "octylimidazolium": 8710,
      "dihydroxyanthraquinone": 8711,
      "fulfills": 8712,
      "cooperative": 8713,
      "cooperativity": 8714,
      "targeted": 8715,
      "pseudo": 8716,
      "pseudocapac": 8717,
      "deployment": 8718,
      "aatp": 8719,
      "biggest": 8720,
      "figure": 8721,
      "front": 8722,
      "fairly": 8723,
      "freshly": 8724,
      "gs−1": 8725,
      "hoesy": 8726,
      "housing": 8727,
      "hurdles": 8728,
      "kno": 8729,
      "launched": 8730,
      "leveraged": 8731,
      "mali": 8732,
      "middle": 8733,
      "ocv": 8734,
      "please": 8735,
      "pemfcs": 8736,
      "rnah": 8737,
      "rzmbs": 8738,
      "scope": 8739,
      "spherical": 8740,
      "utmost": 8741,
      "##nmrli": 8742,
      "##tzite": 8743,
      "##cyclotetr": 8744,
      "annealed": 8745,
      "##organosilyl": 8746,
      "reprod": 8747,
      "revolutionize": 8748,
      "rearrangement": 8749,
      "stret": 8750,
      "stemming": 8751,
      "conversions": 8752,
      "altogether": 8753,
      "po2f2": 8754,
      "isobut": 8755,
      "ch3cook": 8756,
      "beginning": 8757,
      "attached": 8758,
      "exothermic": 8759,
      "compression": 8760,
      "discernible": 8761,
      "polyoxometal": 8762,
      "whiskers": 8763,
      "meantime": 8764,
      "voltaic": 8765,
      "underscores": 8766,
      "preserve": 8767,
      "diversity": 8768,
      "na5in": 8769,
      "naqrfbs": 8770,
      "aminopropyl": 8771,
      "amylopectin": 8772,
      "propanesulfonyl": 8773,
      "propagation": 8774,
      "1027": 8775,
      "so42": 8776,
      "so3h": 8777,
      "afterwards": 8778,
      "envisioned": 8779,
      "manifests": 8780,
      "months": 8781,
      "1970s": 8782,
      "pvbbapegmex": 8783,
      "equivalents": 8784,
      "conveniently": 8785,
      "trifluoromethansulfonyl": 8786,
      "strictly": 8787,
      "derivatization": 8788,
      "ultralong": 8789,
      "simplest": 8790,
      "distortion": 8791,
      "trifluoromethylsulfony": 8792,
      "benignity": 8793,
      "adsorbs": 8794,
      "electrodeposits": 8795,
      "fixation": 8796,
      "creativecommons": 8797,
      "swcnt": 8798,
      "historically": 8799,
      "unsaturated": 8800,
      "undesired": 8801,
      "dihydroxybenzene": 8802,
      "constraints": 8803,
      "crystallographic": 8804,
      "instrumentation": 8805,
      "fragments": 8806,
      "tortuosity": 8807,
      "nanoconfined": 8808,
      "chronoamperometry": 8809,
      "1in−0": 8810,
      "2acrylamidoethoxy": 8811,
      "ageing": 8812,
      "bgpe": 8813,
      "body": 8814,
      "bimetal": 8815,
      "bandwidth": 8816,
      "c4f": 8817,
      "cadmium": 8818,
      "cloth": 8819,
      "dmpim": 8820,
      "dodecan": 8821,
      "destroy": 8822,
      "divided": 8823,
      "fingerpr": 8824,
      "fischer": 8825,
      "fluoromethane": 8826,
      "gese2": 8827,
      "germination": 8828,
      "horiz": 8829,
      "hpo3f": 8830,
      "http": 8831,
      "japan": 8832,
      "lorentzian": 8833,
      "laser": 8834,
      "lumo": 8835,
      "lzno": 8836,
      "landscape": 8837,
      "merely": 8838,
      "mppyrr": 8839,
      "nvp": 8840,
      "nominal": 8841,
      "nantf2": 8842,
      "naphth": 8843,
      "p8w48": 8844,
      "pione": 8845,
      "pendant": 8846,
      "pierce": 8847,
      "qsel": 8848,
[...]
